<unk>	0
<s>	0
</s>	0
。	-3.07944
.	-3.1314
▁	-3.34869
▁I	-4.24899
s	-4.2671
▁the	-4.30896
'	-4.36057
▁to	-4.45509
の	-4.5597
は	-4.58909
、	-4.61404
?	-4.62292
▁a	-4.62408
を	-4.72396
に	-4.85331
▁is	-4.89922
t	-4.92751
▁you	-4.94838
が	-4.94839
,	-5.03515
▁in	-5.19876
▁of	-5.21103
▁He	-5.51737
▁The	-5.53266
▁was	-5.64256
で	-5.66774
▁Tom	-5.6825
▁that	-5.704
▁for	-5.73069
▁彼は	-5.74359
ed	-5.75353
と	-5.79099
▁it	-5.85374
d	-5.88936
▁me	-5.91002
m	-5.94467
▁have	-5.95952
か	-5.96097
した	-6.01295
▁on	-6.02868
▁and	-6.05097
▁my	-6.08209
ing	-6.10174
だ	-6.11857
▁with	-6.15777
い	-6.15833
▁are	-6.16878
▁at	-6.18301
▁his	-6.19026
▁be	-6.19268
▁私は	-6.20473
▁he	-6.20783
よ	-6.22243
です	-6.23205
た	-6.23982
な	-6.24329
▁this	-6.25558
▁It	-6.25665
▁She	-6.26164
▁not	-6.26752
▁your	-6.30218
n	-6.31208
って	-6.37966
から	-6.39231
る	-6.39329
も	-6.40212
▁You	-6.4053
▁can	-6.43741
▁do	-6.44359
▁トムは	-6.44911
▁We	-6.4598
▁彼女は	-6.47399
▁like	-6.47859
!	-6.49716
re	-6.50143
ll	-6.51832
▁この	-6.53261
▁as	-6.5383
▁her	-6.54881
▁その	-6.55045
▁will	-6.59669
し	-6.61075
▁has	-6.63346
▁him	-6.67148
り	-6.67948
った	-6.69914
ら	-6.70757
▁go	-6.71231
▁don	-6.72547
▁up	-6.73484
▁by	-6.75647
▁This	-6.76195
▁from	-6.77213
y	-6.78829
ね	-6.79608
する	-6.82837
▁had	-6.83964
▁out	-6.84006
て	-6.84378
ly	-6.86001
er	-6.87093
お	-6.8716
▁so	-6.87636
▁time	-6.87697
んだ	-6.87961
には	-6.8894
▁all	-6.89526
▁My	-6.91343
▁What	-6.92277
▁"	-6.92504
ve	-6.93924
して	-6.9399
く	-6.94423
▁an	-6.95551
▁about	-6.95611
▁very	-7.02556
その	-7.03625
▁good	-7.04166
▁know	-7.04516
▁but	-7.05857
▁we	-7.05914
ない	-7.08468
▁want	-7.09912
e	-7.1026
▁get	-7.13543
▁she	-7.14407
▁no	-7.15371
▁There	-7.15899
▁what	-7.16816
▁think	-7.17138
だった	-7.17607
▁were	-7.18065
いた	-7.18715
さ	-7.21504
▁A	-7.21623
r	-7.21701
▁there	-7.21874
ン	-7.23247
している	-7.24069
う	-7.24262
▁here	-7.25584
-	-7.25639
▁been	-7.25767
▁Mary	-7.26178
▁one	-7.26622
▁should	-7.28834
▁than	-7.28979
わ	-7.29012
▁Do	-7.29182
▁They	-7.30514
ー	-7.31868
u	-7.32527
▁when	-7.32651
す	-7.3274
である	-7.3443
ま	-7.34708
き	-7.35954
▁That	-7.36245
人	-7.36384
o	-7.36566
▁going	-7.37183
▁come	-7.38138
▁How	-7.40641
一	-7.41508
」	-7.41541
日	-7.42761
i	-7.43294
ます	-7.43341
▁more	-7.43949
▁day	-7.44005
l	-7.4445
いる	-7.44781
▁would	-7.44982
▁did	-7.47291
▁see	-7.48029
なかった	-7.48669
▁work	-7.48857
▁if	-7.49047
▁Don	-7.49312
ス	-7.49332
al	-7.49339
▁much	-7.49829
▁too	-7.50607
▁彼の	-7.50801
や	-7.51053
め	-7.52018
▁car	-7.53138
▁could	-7.53385
▁got	-7.54103
▁take	-7.54209
み	-7.54233
▁am	-7.54825
▁home	-7.55157
▁Please	-7.55228
こと	-7.5525
がある	-7.55466
▁If	-7.56388
▁man	-7.5647
▁now	-7.56663
いい	-7.57136
▁people	-7.57278
a	-7.57379
年	-7.58416
つ	-7.58748
or	-7.58782
ました	-7.58841
あ	-7.59811
1	-7.59976
ar	-7.60406
p	-7.60578
g	-7.61368
c	-7.61768
▁just	-7.62634
っている	-7.62738
▁make	-7.62777
▁school	-7.62961
ですか	-7.64076
st	-7.64332
▁our	-7.64571
▁私の	-7.65072
w	-7.65123
彼は	-7.65159
▁over	-7.65445
▁any	-7.66612
▁went	-7.66687
▁彼らは	-7.66974
▁didn	-7.66981
▁last	-7.67452
le	-7.69065
▁off	-7.69176
▁house	-7.69267
▁money	-7.69335
だろう	-7.69833
2	-7.70227
▁book	-7.70255
▁into	-7.70478
▁must	-7.7055
▁some	-7.71726
ル	-7.71794
es	-7.71883
▁made	-7.7211
なさい	-7.72275
in	-7.72455
en	-7.7247
▁us	-7.72979
ん	-7.73606
ra	-7.73794
大	-7.74232
この	-7.74504
何	-7.74568
え	-7.7467
▁or	-7.7482
▁back	-7.75152
ている	-7.75367
まで	-7.759
よく	-7.7614
本	-7.76512
▁who	-7.7654
私の	-7.7657
▁Are	-7.77162
▁long	-7.77298
ri	-7.77442
."	-7.77969
▁私たちは	-7.78188
私は	-7.78199
▁way	-7.78455
▁lot	-7.78611
▁many	-7.78862
▁well	-7.79199
th	-7.79276
▁「	-7.79339
より	-7.79533
b	-7.79538
h	-7.79546
イ	-7.79816
時	-7.7995
見	-7.80913
▁help	-7.8096
▁new	-7.81235
▁today	-7.82503
手	-7.8254
▁English	-7.82558
k	-7.82662
▁His	-7.82673
▁two	-7.83182
▁room	-7.83515
▁before	-7.8381
ク	-7.84292
ことを	-7.84318
3	-7.84402
▁When	-7.84669
▁said	-7.84669
▁always	-7.85216
へ	-7.85815
▁tomorrow	-7.85995
▁say	-7.86083
ご	-7.86158
▁father	-7.86826
時間	-7.87093
▁never	-7.87108
中	-7.87555
とても	-7.87881
ば	-7.87969
▁old	-7.87987
▁really	-7.8844
▁right	-7.88554
▁need	-7.88768
ラ	-7.88851
▁better	-7.88917
▁down	-7.89699
そう	-7.89972
もの	-7.90067
います	-7.90327
ro	-7.90362
▁Let	-7.90663
▁they	-7.91202
だよ	-7.91869
ください	-7.92199
物	-7.92428
では	-7.93248
れ	-7.9447
se	-7.94549
▁isn	-7.9578
ある	-7.95992
▁their	-7.96056
▁how	-7.96616
▁years	-7.97021
話	-7.97363
▁after	-7.97386
家	-7.97701
こ	-7.98235
のは	-7.98276
▁eat	-7.98476
なら	-7.98852
▁three	-7.99207
▁tell	-7.99671
リ	-7.99931
▁little	-8.00422
▁French	-8.00581
分	-8.00802
▁only	-8.00969
▁please	-8.01008
f	-8.01689
▁came	-8.01827
ので	-8.02127
▁night	-8.02193
▁あなたは	-8.02426
▁put	-8.0293
▁Can	-8.03418
ア	-8.03538
▁every	-8.03618
▁Is	-8.0369
▁speak	-8.04073
出	-8.04106
子	-8.04485
私に	-8.049
方	-8.054
▁p	-8.05585
▁doesn	-8.05628
という	-8.06199
ではない	-8.0634
け	-8.06445
▁other	-8.06921
▁next	-8.07239
ト	-8.07269
ch	-8.0737
▁hard	-8.07372
でも	-8.07552
▁彼が	-8.08239
せ	-8.08408
ほど	-8.08463
▁still	-8.08557
?"	-8.09424
▁Why	-8.0975
▁b	-8.09752
▁S	-8.10136
彼の	-8.10352
▁rain	-8.10448
▁train	-8.1049
します	-8.10725
▁mother	-8.10837
じ	-8.11176
今	-8.1168
者	-8.11942
いて	-8.12186
▁love	-8.12383
li	-8.12651
▁left	-8.13098
▁name	-8.13099
▁de	-8.13369
国	-8.13628
会	-8.13708
▁それは	-8.13715
▁In	-8.139
された	-8.13985
気	-8.14051
▁buy	-8.14496
生	-8.14524
it	-8.1466
est	-8.15012
▁first	-8.15417
通	-8.15757
▁something	-8.16099
▁give	-8.16864
▁read	-8.16889
だけ	-8.16896
ion	-8.17234
▁may	-8.17333
▁f	-8.17881
▁yesterday	-8.18617
人は	-8.1869
▁late	-8.18959
▁year	-8.19009
▁Japan	-8.19128
▁again	-8.19199
▁life	-8.1932
でしょう	-8.19413
るの	-8.19448
▁あの	-8.19501
▁live	-8.19581
▁anything	-8.20029
のか	-8.20124
▁soon	-8.20192
になる	-8.21122
▁play	-8.21249
もう	-8.21329
▁away	-8.21379
口	-8.21527
目	-8.21586
an	-8.21659
▁今	-8.22752
金	-8.2297
になった	-8.23035
▁great	-8.23049
ことは	-8.23189
なの	-8.23588
していた	-8.23633
▁Where	-8.23785
ち	-8.23832
▁call	-8.24009
どう	-8.24198
▁look	-8.24545
▁cold	-8.24599
▁week	-8.24788
▁use	-8.24835
▁such	-8.24865
前に	-8.24889
っ	-8.25414
▁morning	-8.25477
月	-8.25914
▁took	-8.25979
▁お	-8.26286
▁because	-8.26852
心	-8.27115
▁plan	-8.27238
▁teacher	-8.27655
ますか	-8.2774
▁トムが	-8.28073
ation	-8.28385
ment	-8.28902
をした	-8.28926
いない	-8.28966
▁これは	-8.29099
▁thought	-8.29247
ce	-8.29425
事	-8.2954
ろ	-8.29888
しない	-8.29918
ぶ	-8.30079
について	-8.30099
▁No	-8.30107
着	-8.30171
下	-8.3058
ように	-8.30728
▁君は	-8.30822
ur	-8.30831
カ	-8.30874
む	-8.31072
▁children	-8.31167
ter	-8.31225
いつも	-8.31991
よう	-8.32024
んだよ	-8.32242
5	-8.3248
▁keep	-8.3255
それを	-8.32555
上	-8.32562
▁bad	-8.33161
▁nothing	-8.33286
▁P	-8.33337
自分の	-8.33571
▁T	-8.33648
び	-8.3378
▁feel	-8.33877
学	-8.34049
と思う	-8.34151
▁does	-8.34296
▁Japanese	-8.34548
▁dog	-8.34892
▁told	-8.35013
▁them	-8.35023
よい	-8.35169
▁Have	-8.35913
te	-8.36147
▁used	-8.36287
考え	-8.36327
さん	-8.36331
回	-8.36502
▁water	-8.36596
▁often	-8.36596
ers	-8.36921
▁もう	-8.37086
▁without	-8.37116
数	-8.37258
ent	-8.37265
電話	-8.37307
▁kind	-8.37496
体	-8.37968
▁friend	-8.38125
▁Who	-8.38204
なんて	-8.3844
lo	-8.38762
んです	-8.39473
▁Did	-8.39508
ic	-8.40354
夜	-8.40463
たい	-8.40721
水	-8.41155
げ	-8.41204
▁job	-8.41595
できる	-8.41644
知	-8.41722
彼女は	-8.41758
しました	-8.42537
メアリー	-8.42696
▁being	-8.42708
▁brother	-8.42805
時に	-8.42861
▁un	-8.42937
▁gave	-8.43132
▁best	-8.43469
▁今日は	-8.43492
地	-8.43604
マ	-8.44159
でした	-8.44236
▁boy	-8.44277
まだ	-8.44342
レ	-8.44391
▁where	-8.44439
▁door	-8.44571
彼を	-8.44599
10	-8.4469
il	-8.44752
▁won	-8.4507
それ	-8.45139
ロ	-8.45159
チ	-8.45164
▁talk	-8.45314
不	-8.45317
▁days	-8.45393
▁matter	-8.46026
▁彼女の	-8.46555
新しい	-8.46576
のですか	-8.46723
▁around	-8.46729
キ	-8.46936
▁cannot	-8.46951
▁c	-8.46983
▁Mr	-8.47036
▁bus	-8.4724
▁saw	-8.4763
」「	-8.47637
人の	-8.47655
▁私が	-8.47909
▁lost	-8.48488
けど	-8.48657
4	-8.48671
▁person	-8.49004
▁letter	-8.49026
▁E	-8.49027
▁あなたの	-8.49097
able	-8.49211
▁As	-8.49305
れた	-8.49498
しく	-8.49541
男	-8.49574
問題	-8.49637
▁これ	-8.49784
後	-8.49962
on	-8.50161
無	-8.50247
コ	-8.5028
▁leave	-8.50392
at	-8.50453
▁bought	-8.50482
来る	-8.50492
しい	-8.50546
とは	-8.50794
?」「	-8.51233
少し	-8.51246
▁find	-8.51363
ity	-8.51401
▁place	-8.51462
私が	-8.5152
道	-8.51525
▁things	-8.51846
友達	-8.52282
▁何	-8.52427
かった	-8.52557
▁own	-8.52576
らない	-8.52653
んで	-8.52674
がない	-8.52703
ないよ	-8.52896
何も	-8.5297
ウ	-8.53056
にも	-8.53304
ive	-8.53504
シ	-8.5381
▁sure	-8.53927
グ	-8.53961
▁ever	-8.53984
▁それ	-8.54047
▁friends	-8.54144
▁party	-8.54227
▁while	-8.54325
▁world	-8.54416
言う	-8.54473
ず	-8.54618
用	-8.54653
仕事	-8.55124
力	-8.55152
タ	-8.55242
ty	-8.55469
▁トム	-8.55541
木	-8.55886
られた	-8.55931
彼女の	-8.56134
▁ten	-8.56452
入	-8.56494
▁once	-8.56575
▁problem	-8.56718
▁high	-8.56723
ne	-8.56733
us	-8.56951
なく	-8.57006
ジ	-8.57065
ると	-8.5713
「	-8.57183
愛	-8.57378
▁found	-8.57566
▁true	-8.57566
po	-8.57578
いました	-8.57958
▁study	-8.58098
作	-8.58128
ム	-8.58272
あなたの	-8.58445
▁understand	-8.58607
▁heard	-8.58731
mi	-8.58852
ct	-8.58885
▁child	-8.58891
語	-8.58939
として	-8.59082
▁hand	-8.59275
トム	-8.59309
歳	-8.59352
I	-8.59375
長	-8.59572
v	-8.5972
▁young	-8.59868
に行く	-8.60051
▁looking	-8.60058
外	-8.60251
るよ	-8.60325
空	-8.60493
▁open	-8.60599
▁station	-8.60627
ところ	-8.60633
▁thing	-8.607
▁drink	-8.60789
フ	-8.60909
▁doing	-8.60923
行く	-8.6093
ことが	-8.61034
実	-8.61043
度	-8.61049
▁believe	-8.61306
▁let	-8.61469
as	-8.61488
▁girl	-8.61567
▁mind	-8.61697
▁walk	-8.61844
"	-8.62074
▁far	-8.62093
彼に	-8.62228
間	-8.62254
▁books	-8.62345
▁turn	-8.62399
ません	-8.62674
▁Boston	-8.6308
行	-8.63104
とき	-8.63213
ていた	-8.63354
z	-8.63509
▁idea	-8.63811
▁bed	-8.63824
▁beautiful	-8.63879
▁con	-8.64093
7	-8.64231
▁pro	-8.64234
▁accident	-8.64281
▁asked	-8.64462
ッ	-8.64484
食	-8.64761
下さい	-8.64932
しています	-8.65011
▁stay	-8.65261
el	-8.65409
▁sister	-8.65598
▁seen	-8.65683
▁even	-8.6589
っていた	-8.6599
すぐ	-8.66024
▁All	-8.66049
病気	-8.66057
▁able	-8.66247
▁F	-8.66315
家に	-8.6632
先生	-8.66325
何を	-8.66508
ck	-8.66511
▁cat	-8.66547
オ	-8.66726
▁already	-8.66829
すぐに	-8.66966
もっと	-8.66967
ver	-8.66979
山	-8.67139
▁show	-8.67191
ge	-8.6727
▁happy	-8.67451
▁answer	-8.67659
・	-8.67867
▁food	-8.67867
歌	-8.68301
バス	-8.68389
▁enough	-8.68391
なんだ	-8.6853
そ	-8.68532
▁C	-8.68592
▁僕は	-8.68602
▁these	-8.68657
▁yet	-8.68692
多くの	-8.68787
メ	-8.68789
▁run	-8.68823
ul	-8.68843
▁class	-8.68913
ther	-8.68923
じゃない	-8.6896
▁doctor	-8.69127
名	-8.69179
ry	-8.6919
ような	-8.69401
のに	-8.69527
彼女に	-8.69643
ふ	-8.69648
▁country	-8.69769
ate	-8.69869
人が	-8.69951
車	-8.70456
▁L	-8.70593
を見	-8.70889
勉強	-8.71155
サ	-8.71225
母	-8.71451
花	-8.71478
6	-8.71505
れる	-8.71677
ひ	-8.71689
▁care	-8.71801
▁through	-8.72021
発	-8.72216
▁met	-8.72222
前	-8.72225
は何	-8.72293
▁hear	-8.72488
ist	-8.72489
誰	-8.72513
▁co	-8.7274
動	-8.72815
▁same	-8.73239
旅行	-8.73672
▁looks	-8.73857
▁Your	-8.73874
面	-8.73917
8	-8.74096
un	-8.74271
x	-8.74313
言	-8.74335
ta	-8.74429
ずっと	-8.74703
かな	-8.74708
ha	-8.74737
▁big	-8.75017
良い	-8.75147
エ	-8.75338
▁which	-8.75563
▁parents	-8.75676
をする	-8.75958
ど	-8.76157
学生	-8.7622
来た	-8.76266
当	-8.76338
直	-8.76341
30	-8.76373
▁Be	-8.76401
しか	-8.76419
▁seems	-8.76466
ド	-8.765
▁ask	-8.76587
▁called	-8.76663
▁light	-8.76873
tion	-8.76894
▁since	-8.76925
なければならない	-8.77011
悪	-8.77191
みんな	-8.77195
通り	-8.77197
▁large	-8.77268
▁meet	-8.77287
▁watch	-8.773
何か	-8.77339
はとても	-8.77435
ho	-8.77458
▁Her	-8.77561
▁end	-8.77577
▁明日	-8.77654
▁snow	-8.77728
できない	-8.77749
新	-8.77816
寝	-8.77892
言葉	-8.78425
アメリカ	-8.78623
▁meeting	-8.78648
▁coffee	-8.78769
ブ	-8.78873
▁family	-8.78885
食べ	-8.78934
pe	-8.78976
▁business	-8.79002
言った	-8.79058
▁Our	-8.79252
▁difficult	-8.79343
私を	-8.79633
プ	-8.79647
やって	-8.7968
▁wrong	-8.79704
▁busy	-8.79743
はない	-8.79772
▁tired	-8.8008
▁Could	-8.80293
▁early	-8.8053
ol	-8.80587
▁few	-8.80767
▁weather	-8.80886
▁done	-8.81041
ット	-8.81077
これ	-8.81116
▁game	-8.81248
▁彼はその	-8.814
um	-8.81458
雨	-8.81581
▁wonder	-8.81589
だと	-8.81794
▁most	-8.81887
▁To	-8.81986
身	-8.82036
▁Would	-8.82201
▁May	-8.82255
▁son	-8.82438
▁small	-8.82443
開	-8.82486
▁hope	-8.82571
たち	-8.82615
書	-8.83128
ック	-8.8313
んだけど	-8.83234
会社	-8.83551
よりも	-8.83639
▁part	-8.83792
きた	-8.83803
▁私達は	-8.83834
理	-8.83975
ここに	-8.84021
co	-8.84062
小	-8.84204
▁students	-8.84449
来	-8.84613
▁easy	-8.84639
があります	-8.84856
▁company	-8.84886
々	-8.85023
彼が	-8.85244
あまり	-8.85475
▁yourself	-8.85506
▁nice	-8.85634
に行った	-8.85642
ミ	-8.85653
のために	-8.86046
部屋	-8.86111
あの	-8.86151
▁g	-8.86175
くれた	-8.86264
ke	-8.86327
me	-8.86334
▁month	-8.86359
早く	-8.86365
▁君の	-8.86371
▁fire	-8.86396
▁try	-8.86439
▁もし	-8.86454
二	-8.86533
▁wish	-8.86634
he	-8.86642
息子	-8.86655
▁start	-8.86693
▁我々は	-8.86698
達	-8.86731
▁looked	-8.86844
明日	-8.86884
正	-8.86953
▁stop	-8.87132
▁until	-8.87138
朝	-8.87206
大きな	-8.87265
ting	-8.87335
▁tried	-8.87391
▁wanted	-8.87482
▁another	-8.87518
的な	-8.87531
▁become	-8.87773
本当に	-8.87778
getting	-8.87806
▁five	-8.87944
立	-8.88054
▁question	-8.88157
いった	-8.88202
ことに	-8.88287
言って	-8.88603
ましょう	-8.88688
色	-8.88793
映画	-8.88799
▁トムの	-8.88866
ful	-8.8892
▁昨日	-8.89223
▁news	-8.89307
▁phone	-8.8935
ぎ	-8.8954
▁married	-8.89571
▁face	-8.89962
られる	-8.90006
場	-8.90032
また	-8.90245
しなさい	-8.90274
所	-8.90697
知らない	-8.90778
de	-8.90844
ものだ	-8.90991
▁alone	-8.91008
▁everything	-8.9127
れて	-8.91414
▁メアリーは	-8.91423
合	-8.91463
いません	-8.9152
▁afraid	-8.91534
行った	-8.91642
ぞ	-8.91902
機	-8.92021
世界	-8.92026
▁short	-8.92064
足	-8.92103
される	-8.92107
たちは	-8.92128
習	-8.92196
less	-8.9224
昨日	-8.92421
ies	-8.92474
▁ran	-8.9256
▁remember	-8.92597
ever	-8.92654
to	-8.92676
▁write	-8.92842
▁pay	-8.9289
▁reading	-8.92941
9	-8.92942
行き	-8.93051
▁John	-8.93133
▁himself	-8.93133
ma	-8.93304
▁story	-8.93672
店	-8.93782
et	-8.93914
川	-8.93942
のよ	-8.93959
毎日	-8.94093
age	-8.94116
れている	-8.94139
モ	-8.94349
かもしれない	-8.94349
してください	-8.94369
になって	-8.94401
ぐ	-8.94402
残	-8.94434
雪	-8.94485
▁under	-8.94486
▁each	-8.94628
仕事を	-8.94648
▁hot	-8.94793
▁sleep	-8.94831
君	-8.94868
▁父は	-8.95042
ほ	-8.95146
▁city	-8.95203
子供	-8.95221
▁ex	-8.95433
ドル	-8.95436
▁私	-8.95446
▁wait	-8.95469
っと	-8.956
▁change	-8.95716
▁dis	-8.95743
少年	-8.95752
ガ	-8.95783
▁B	-8.95791
そうだ	-8.95825
ant	-8.96142
出した	-8.96222
本当	-8.96228
内	-8.96264
したい	-8.96295
バ	-8.96669
▁sorry	-8.96688
ish	-8.96779
リー	-8.96852
▁near	-8.96969
意	-8.97008
高	-8.97178
▁e	-8.97258
君の	-8.97373
服	-8.97386
▁coming	-8.97391
▁bit	-8.97439
代	-8.97478
見た	-8.97668
▁1	-8.9773
▁Tokyo	-8.97807
quite	-8.97814
要	-8.97938
頭	-8.97948
生活	-8.97954
▁why	-8.98089
▁music	-8.98365
▁free	-8.98374
id	-8.98438
同	-8.98485
めた	-8.98644
ビ	-8.98693
一人	-8.9884
ハ	-8.98943
▁word	-8.99105
お金	-8.99167
必要	-8.99175
死	-8.99223
▁pass	-8.99331
▁visit	-8.99337
海	-8.99369
返	-8.99436
音楽	-8.99518
▁office	-8.99542
▁Will	-8.99654
先	-8.99655
▁彼女が	-8.99778
▁eyes	-8.99845
三	-8.99941
▁park	-9.0023
誰か	-9.00486
ci	-9.00527
▁town	-9.00537
ac	-9.00539
運転	-9.00617
私	-9.00685
▁myself	-9.00807
▁ago	-9.00849
ru	-9.00865
▁learn	-9.00993
ですね	-9.01209
ad	-9.01245
▁sick	-9.0141
▁window	-9.01542
全部	-9.01544
▁finished	-9.01579
切	-9.0158
▁sun	-9.01601
ほとんど	-9.01879
言い	-9.01971
料理	-9.02128
▁summer	-9.02269
英語	-9.02423
犬	-9.02468
手を	-9.02631
▁started	-9.02789
▁wife	-9.02859
▁important	-9.0286
が好きです	-9.03078
mo	-9.03099
▁number	-9.03155
ness	-9.0316
▁those	-9.03167
フランス語	-9.03167
入れ	-9.03204
ケ	-9.0338
家族	-9.03459
▁present	-9.03602
心配	-9.03612
あり	-9.03688
pi	-9.04111
得	-9.0412
▁against	-9.04185
▁point	-9.0435
的	-9.04388
ちょっと	-9.04453
▁travel	-9.04652
お金を	-9.04698
東京	-9.04731
is	-9.0475
られない	-9.04765
▁トムって	-9.04787
スト	-9.0488
火	-9.04913
駅	-9.04934
いつ	-9.04952
話し	-9.05057
ること	-9.05071
自	-9.05084
ズ	-9.05104
が好きだ	-9.05106
パ	-9.05145
▁head	-9.05162
急	-9.05176
があった	-9.0521
ために	-9.05233
町	-9.05251
てください	-9.053
▁o	-9.05327
を見た	-9.05371
だから	-9.05409
▁TV	-9.0541
▁2	-9.0553
晩	-9.05712
▁W	-9.05834
成	-9.05841
住	-9.05912
女	-9.0602
▁dinner	-9.0617
▁dress	-9.06174
clock	-9.06323
▁might	-9.0633
ぼ	-9.06367
どこ	-9.06456
▁hair	-9.06476
les	-9.06513
学校	-9.06639
▁mo	-9.06655
トムは	-9.06684
▁baby	-9.06784
同じ	-9.06818
▁hours	-9.06898
文	-9.07296
ましたか	-9.07433
点	-9.07577
▁minutes	-9.07745
医者	-9.07755
turned	-9.07999
tic	-9.08041
▁fast	-9.08232
▁health	-9.08536
そこに	-9.08542
▁fell	-9.08638
ツ	-9.08649
▁lunch	-9.08649
▁words	-9.08781
女性	-9.08817
来て	-9.08934
ですよ	-9.08964
眠	-9.09063
ナ	-9.0923
手紙を	-9.09233
▁arrived	-9.09256
▁order	-9.09279
▁どうして	-9.09329
しよう	-9.09383
▁broke	-9.09411
するの	-9.09472
起こ	-9.09684
▁ch	-9.09693
話す	-9.09701
待って	-9.09804
▁between	-9.09912
消	-9.09974
私たち	-9.10019
▁swim	-9.1007
▁having	-9.10071
あります	-9.10085
▁playing	-9.10137
▁likes	-9.10182
▁agree	-9.10231
▁whe	-9.10374
やる	-9.1045
の中	-9.10511
▁set	-9.10517
える	-9.10537
つけ	-9.10609
▁wasn	-9.10776
のです	-9.10792
▁full	-9.1089
と思います	-9.10909
▁At	-9.10953
天気	-9.10977
始めた	-9.1103
すぎる	-9.11074
▁stand	-9.11129
▁caught	-9.11191
▁decided	-9.11264
▁working	-9.11362
最	-9.11374
ニ	-9.11541
▁haven	-9.11598
成功	-9.11683
▁fun	-9.1172
べ	-9.11742
声	-9.11845
ばかり	-9.11887
好きな	-9.11931
別	-9.11937
向	-9.12052
ってる	-9.12131
▁living	-9.12161
過ぎ	-9.12168
持ち	-9.12237
▁times	-9.12251
▁language	-9.12384
気が	-9.1259
▁lives	-9.12615
のこと	-9.12617
集	-9.12649
▁six	-9.12649
▁river	-9.12652
大学	-9.12652
▁age	-9.12661
ダ	-9.12688
▁gone	-9.12715
▁men	-9.12717
大変	-9.12719
▁street	-9.12813
どちら	-9.12813
ています	-9.13037
高い	-9.13059
すること	-9.13087
▁dream	-9.1314
質問	-9.13142
ow	-9.13185
そんなに	-9.13186
▁talking	-9.13253
みたい	-9.13266
▁truth	-9.13304
意見	-9.13379
▁table	-9.13518
えた	-9.13527
ベ	-9.13585
▁trouble	-9.13634
▁store	-9.13634
▁picture	-9.13714
▁goes	-9.13818
一緒に	-9.13858
na	-9.13937
▁lie	-9.13938
ボ	-9.14097
fi	-9.14187
▁student	-9.14219
▁both	-9.14236
進	-9.14266
▁happened	-9.14267
忘れ	-9.14337
車を	-9.14377
性	-9.14423
自転車	-9.14468
ip	-9.14501
猫	-9.14593
誰も	-9.14696
明	-9.1474
ine	-9.14783
▁あなたが	-9.15028
失	-9.1545
テニス	-9.15464
生徒	-9.15475
意味	-9.15644
部	-9.15751
▁cut	-9.15787
ポ	-9.15996
▁ここ	-9.16005
自分	-9.16072
なければ	-9.16212
れば	-9.16221
重	-9.16229
人間	-9.16301
▁catch	-9.16359
笑	-9.16388
船	-9.16477
親切	-9.16488
▁tennis	-9.16647
▁何か	-9.16672
ng	-9.16703
魚	-9.16816
▁tea	-9.1688
ール	-9.17037
パン	-9.17125
せた	-9.17158
pp	-9.17183
家は	-9.17299
の中で	-9.17476
によって	-9.17662
説明	-9.17845
▁ma	-9.17914
たら	-9.1792
▁cost	-9.17938
▁case	-9.18017
▁comes	-9.18048
張	-9.18177
んですか	-9.18204
ca	-9.18226
いますか	-9.18341
▁fact	-9.18534
▁happen	-9.18563
ドア	-9.18603
per	-9.18671
セ	-9.18706
▁waiting	-9.18816
答え	-9.18868
話を	-9.18969
▁angry	-9.19055
▁almo	-9.19072
悪い	-9.19088
絵	-9.19228
やった	-9.1924
したら	-9.19243
▁makes	-9.19252
usually	-9.19349
電車	-9.19371
▁police	-9.19394
▁close	-9.19475
▁began	-9.19578
ba	-9.19659
vi	-9.19674
▁then	-9.19687
金を	-9.19691
▁Man	-9.19727
りました	-9.19748
たくさん	-9.1992
靴	-9.19928
るのは	-9.20248
主	-9.20267
テ	-9.20271
られ	-9.20287
やめ	-9.2031
なる	-9.20389
熱	-9.20456
▁together	-9.20457
にある	-9.20582
pa	-9.20636
味	-9.20797
▁red	-9.20807
ざ	-9.2081
▁trip	-9.2081
どんな	-9.20884
好き	-9.21019
▁O	-9.21145
命	-9.21155
▁mistake	-9.21184
▁fine	-9.21207
ただ	-9.21273
▁Australia	-9.21343
本を	-9.21389
と言った	-9.21418
飲み	-9.21465
▁di	-9.21542
彼女を	-9.21624
and	-9.21646
イン	-9.21688
約束	-9.21691
▁woman	-9.21704
いなかった	-9.21708
▁tonight	-9.21881
ため	-9.21921
led	-9.21992
ated	-9.22012
を見て	-9.22021
op	-9.22106
▁hurt	-9.22238
▁paper	-9.22238
▁3	-9.22264
ないように	-9.22299
信じ	-9.22356
薬	-9.22417
▁私はその	-9.2246
友人	-9.2247
▁heart	-9.22549
取り	-9.22574
夏	-9.22591
▁These	-9.22618
▁died	-9.22632
▁forget	-9.22832
コーヒー	-9.22833
ようだ	-9.22904
員	-9.22949
をしている	-9.22971
ながら	-9.23133
わない	-9.23182
こう	-9.23305
▁そんな	-9.23307
であった	-9.23308
戦	-9.23319
:	-9.23321
▁rich	-9.23326
▁homework	-9.23339
助け	-9.23411
つもり	-9.23417
今日	-9.23426
一つ	-9.23585
やり	-9.23709
顔	-9.2372
幸せ	-9.23733
▁others	-9.23819
▁ちょっと	-9.2393
をお	-9.23977
▁also	-9.24051
▁felt	-9.24051
るんだ	-9.24056
▁air	-9.24057
行か	-9.24076
記	-9.24232
める	-9.24244
戻	-9.24246
洗	-9.24285
▁drive	-9.24295
見える	-9.24313
▁someone	-9.24439
▁war	-9.24441
くる	-9.24471
品	-9.24761
休	-9.24815
立ち	-9.24823
ター	-9.24834
事を	-9.2487
▁reason	-9.2497
法	-9.25013
以上	-9.25035
▁Sunday	-9.25155
全	-9.25253
S	-9.25346
てる	-9.25392
▁movie	-9.25419
しなかった	-9.25504
名前	-9.25525
写真	-9.25527
有	-9.25534
▁pain	-9.25695
飛行機	-9.25751
▁君が	-9.25829
観	-9.25897
▁For	-9.26003
様	-9.26071
音	-9.26178
頃	-9.26256
断	-9.26262
頼	-9.26336
ries	-9.26356
am	-9.26361
▁君	-9.26364
非常に	-9.26461
はその	-9.26517
▁sc	-9.2654
のように	-9.26548
▁hospital	-9.26646
▁break	-9.26647
▁poor	-9.26649
美しい	-9.26664
しかった	-9.26673
▁interesting	-9.26741
人に	-9.26796
のため	-9.26833
▁follow	-9.26834
引き	-9.26875
パーティー	-9.26912
されている	-9.2719
▁mine	-9.27225
を食べ	-9.27227
決して	-9.27232
ig	-9.27249
親	-9.27355
▁sound	-9.274
▁fish	-9.27405
人生	-9.27528
じゃ	-9.27602
的に	-9.27752
▁mountain	-9.27779
の中に	-9.27787
すぎ	-9.27788
▁longer	-9.2787
楽	-9.27884
注意	-9.2795
;	-9.27969
彼	-9.281
あなたに	-9.28116
中に	-9.28216
でしょうか	-9.28222
しなければならない	-9.28244
表	-9.28328
白	-9.28586
まま	-9.28618
を受け	-9.28702
娘	-9.28733
健康	-9.28774
かどうか	-9.28817
▁making	-9.28939
ります	-9.28998
割	-9.2931
▁clear	-9.2931
分からない	-9.29319
▁knows	-9.29464
定	-9.2949
期	-9.29493
きました	-9.29497
▁dark	-9.29503
夢	-9.29599
A	-9.29675
は私の	-9.29704
くれ	-9.29719
▁An	-9.29773
者は	-9.29808
▁along	-9.29891
運	-9.3005
難	-9.30053
髪	-9.30085
見て	-9.30127
▁彼	-9.30188
若い	-9.30339
▁G	-9.30369
風	-9.30502
元気	-9.30545
▁says	-9.30564
真	-9.30578
▁die	-9.30603
▁Does	-9.3062
はどう	-9.3064
▁Some	-9.30678
持って	-9.3073
学校に	-9.30806
end	-9.30831
▁Ha	-9.30859
▁born	-9.30866
▁road	-9.30867
king	-9.3087
しても	-9.30986
世	-9.31065
ことがある	-9.31093
一番	-9.31148
ence	-9.31181
渡	-9.31258
そんな	-9.31322
探	-9.31361
解	-9.31363
鳥	-9.31454
▁price	-9.31454
▁grow	-9.31455
▁anyone	-9.31479
なり	-9.31522
食事	-9.31536
論	-9.3162
▁its	-9.31709
入って	-9.31843
初めて	-9.31898
つか	-9.31974
知っている	-9.32182
を取り	-9.32218
かけ	-9.32265
場所	-9.32267
▁トムはメアリー	-9.32312
▁studying	-9.32318
ance	-9.32384
すべて	-9.32413
君に	-9.32446
箱	-9.32644
▁Take	-9.32661
ありません	-9.32799
▁lived	-9.32906
約	-9.33038
ous	-9.33175
感じ	-9.33271
感	-9.33387
あった	-9.33412
日本	-9.33545
no	-9.33571
引	-9.33601
▁clean	-9.33646
▁strong	-9.33646
クラス	-9.33646
ling	-9.3382
▁sea	-9.33831
知らせ	-9.33861
▁moment	-9.33881
▁wants	-9.33883
▁pu	-9.33952
▁exam	-9.34063
試合	-9.34303
他の	-9.34407
▁act	-9.34421
▁advice	-9.34455
すごく	-9.34455
ay	-9.34465
うち	-9.34481
▁eating	-9.34525
肉	-9.34658
小説	-9.34662
落ち	-9.34708
選	-9.34743
をして	-9.34757
▁10	-9.34759
生き	-9.34807
▁お前	-9.34808
▁ご	-9.34834
指	-9.3486
っています	-9.34969
嫌い	-9.35106
▁rest	-9.35116
レー	-9.3512
とも	-9.35134
▁Which	-9.3527
公園	-9.35272
ということ	-9.35352
どの	-9.35408
妻	-9.35475
▁smoking	-9.35475
red	-9.35646
窓	-9.35646
▁result	-9.35681
にして	-9.35717
▁tree	-9.35925
ight	-9.35944
寄	-9.36092
簡単	-9.36093
▁俺	-9.36239
▁dur	-9.36268
きます	-9.36273
トムの	-9.36281
▁test	-9.36392
▁sight	-9.36433
苦	-9.36493
たくさんの	-9.36494
▁kept	-9.36506
ie	-9.36543
新聞	-9.36725
いるの	-9.36753
に行って	-9.3691
▁taking	-9.3693
▁hour	-9.36979
方がいい	-9.37002
▁plane	-9.37066
rs	-9.37083
業	-9.37086
▁success	-9.37116
▁became	-9.3713
十	-9.37305
ませんか	-9.37333
ついて	-9.37441
関係	-9.37522
はありますか	-9.37523
▁older	-9.37599
▁Thank	-9.37601
bo	-9.37615
▁hands	-9.37724
be	-9.37728
▁death	-9.37757
もない	-9.37804
聞いて	-9.37821
ける	-9.37927
▁behind	-9.38178
▁building	-9.38242
さんは	-9.38262
てきた	-9.3828
立て	-9.38289
▁less	-9.3831
man	-9.38312
私たちは	-9.3834
彼と	-9.38371
神	-9.38383
冬	-9.38389
わからない	-9.38398
上げ	-9.38399
▁Come	-9.38401
お母さん	-9.38483
席	-9.38531
ついた	-9.38541
ここ	-9.38551
せて	-9.3856
▁bring	-9.38621
難しい	-9.38709
hi	-9.38715
動物	-9.3875
買った	-9.38778
遅れ	-9.38881
市	-9.38917
を持って	-9.39085
長い	-9.39085
▁ill	-9.39135
ないで	-9.39163
職	-9.39225
▁breakfast	-9.39237
理由	-9.39241
▁later	-9.39282
美	-9.39291
▁mean	-9.39369
▁今日	-9.39429
彼女	-9.39438
弟	-9.39443
危険	-9.39665
▁New	-9.39674
▁side	-9.39684
ep	-9.39791
車は	-9.39793
つく	-9.39804
売	-9.39836
▁foreign	-9.39878
忙しい	-9.39878
▁box	-9.39879
辞書	-9.39884
▁Even	-9.40094
だれ	-9.40165
どこで	-9.40174
▁One	-9.40176
▁hate	-9.40246
待	-9.40257
降	-9.40426
万	-9.40515
夫	-9.40522
▁OK	-9.40526
腹	-9.40555
払	-9.4062
つき	-9.40652
▁win	-9.40686
社	-9.40879
と一緒に	-9.40922
常	-9.40953
間違い	-9.40956
いている	-9.40968
なくて	-9.4104
昔	-9.41173
努力	-9.41173
かい	-9.41178
▁hotel	-9.41201
事故	-9.4129
光	-9.41388
壊	-9.4139
どこに	-9.41402
▁shoes	-9.41573
▁everyone	-9.41627
▁あなた	-9.41764
自分で	-9.41773
▁abroad	-9.41826
鍵	-9.41826
授業	-9.41827
ap	-9.41921
100	-9.41949
ber	-9.41952
ee	-9.42028
▁brought	-9.42045
人を	-9.42066
ab	-9.42135
上手	-9.4215
よかった	-9.42152
▁fall	-9.42227
▁J	-9.42259
興味	-9.42265
赤	-9.4227
▁seat	-9.42286
遠	-9.42291
べき	-9.4237
まい	-9.4241
▁daughter	-9.42484
▁pretty	-9.42484
▁sp	-9.42533
お父さん	-9.42572
気分	-9.42605
歩いて	-9.42629
私達	-9.42654
20	-9.42667
▁hat	-9.42675
▁hold	-9.42706
日本の	-9.42712
っても	-9.42752
ネ	-9.4291
▁afternoon	-9.42925
▁flowers	-9.42926
良	-9.42943
を持っている	-9.42962
だね	-9.43075
出て	-9.43092
▁opinion	-9.43147
▁real	-9.43164
送	-9.4327
電	-9.43317
日本語	-9.43361
▁pen	-9.43374
▁song	-9.43375
言うこと	-9.43378
まった	-9.43481
それは	-9.43509
特	-9.4359
▁ticket	-9.43591
▁chance	-9.43604
▁pick	-9.43614
▁19	-9.43696
乗	-9.43797
▁computer	-9.43813
▁母は	-9.43867
時計	-9.43953
▁dictionary	-9.44036
▁knew	-9.44036
そこ	-9.44064
ペン	-9.44088
▁yen	-9.44106
たよ	-9.44179
れない	-9.44195
僕の	-9.44204
登	-9.4426
▁different	-9.44265
時代	-9.44326
にお	-9.44419
▁So	-9.44435
▁saying	-9.44453
近く	-9.44457
ヤ	-9.44484
正しい	-9.44521
もらった	-9.44521
次	-9.44524
二人	-9.44604
方が	-9.44675
▁front	-9.44709
星	-9.44709
はもう	-9.44741
▁arm	-9.44835
私たちの	-9.44841
聞き	-9.44851
▁heavy	-9.44935
までに	-9.44941
少女	-9.44943
いく	-9.45134
▁novel	-9.45161
▁key	-9.45167
広	-9.45175
do	-9.45387
▁line	-9.45439
▁Su	-9.45515
ないんだ	-9.45613
▁four	-9.45637
▁whole	-9.45711
そんなこと	-9.45888
両親	-9.45904
手紙	-9.45921
降り	-9.45952
古い	-9.4601
ni	-9.46031
▁bicycle	-9.46068
▁possible	-9.46076
ジョン	-9.46144
さえ	-9.46285
終わった	-9.46297
▁トムに	-9.46344
▁white	-9.46525
好	-9.46591
なし	-9.46632
気に	-9.46708
▁ready	-9.46709
全て	-9.46717
▁clothes	-9.46769
君は	-9.46896
試験	-9.46928
庭	-9.4695
すれば	-9.46975
▁Everyone	-9.46988
▁star	-9.47009
テレビ	-9.47112
▁みんな	-9.47132
▁私には	-9.47219
▁America	-9.47263
▁carry	-9.47333
くて	-9.47353
行って	-9.47394
家の	-9.47411
▁birthday	-9.47447
見え	-9.47451
▁American	-9.47629
平	-9.47667
ノ	-9.4767
▁else	-9.4768
▁sit	-9.47749
彼女が	-9.47769
困	-9.479
居	-9.47909
会う	-9.4795
わけ	-9.47978
▁彼に	-9.47994
▁tall	-9.4832
▁rather	-9.48378
の間	-9.48389
▁bag	-9.48471
金持ち	-9.48516
理解	-9.4854
▁known	-9.48588
ちょうど	-9.48609
▁winter	-9.48636
あなた	-9.48637
借り	-9.48648
するのは	-9.48747
▁sat	-9.48766
たの	-9.48773
るように	-9.48773
ud	-9.48892
out	-9.48929
がいる	-9.48972
cy	-9.49039
書き	-9.49051
仕事は	-9.49072
ホテル	-9.49078
▁cake	-9.49092
▁hit	-9.49152
それが	-9.4923
くない	-9.49268
ki	-9.49269
ボストン	-9.49273
放	-9.49312
▁speaking	-9.49327
50	-9.4952
間に	-9.49526
妹	-9.49542
付け	-9.49683
役	-9.49785
▁sentence	-9.49792
▁careful	-9.49947
利	-9.49986
ケーキ	-9.50022
▁After	-9.50022
らしい	-9.50023
夕食	-9.50028
皆	-9.50043
ary	-9.50167
com	-9.50183
だと思う	-9.50227
かなり	-9.50238
▁across	-9.5026
こちら	-9.5026
ディ	-9.50261
にとって	-9.50333
ko	-9.5037
強	-9.50396
女の子	-9.50405
似	-9.50454
うちに	-9.50464
食べて	-9.50487
必ず	-9.50497
▁トムとメアリーは	-9.5054
生まれ	-9.5062
いだ	-9.50638
あれ	-9.50666
付	-9.50719
▁medicine	-9.50736
しましょう	-9.50745
ろう	-9.50822
▁half	-9.50976
一人で	-9.50978
▁wind	-9.51124
▁まだ	-9.51193
▁sense	-9.51216
だって	-9.51223
かない	-9.51343
犬は	-9.51368
すると	-9.51374
ますよ	-9.51376
▁expensive	-9.51456
望	-9.51493
トムが	-9.51508
が悪い	-9.51583
つもりだ	-9.51601
rate	-9.51645
▁最近	-9.51813
まる	-9.51826
いくら	-9.51832
手伝って	-9.51933
種	-9.51938
▁leg	-9.52149
石	-9.52178
▁speech	-9.5218
▁listen	-9.52216
流	-9.52264
つもりです	-9.52335
が多い	-9.52349
英語を	-9.52352
ちゃった	-9.52378
気持ち	-9.52427
ようと	-9.5244
▁cup	-9.52445
兄	-9.5247
人だ	-9.52472
▁ate	-9.52507
ff	-9.52543
トムに	-9.52546
怖	-9.52663
など	-9.52682
なんか	-9.52709
続	-9.52713
▁finish	-9.52838
▁こんな	-9.52857
デ	-9.52902
ではありません	-9.52911
会議	-9.52931
みな	-9.52951
▁guy	-9.52958
十分	-9.53
▁surprised	-9.53271
結婚	-9.53297
僕	-9.53409
ものは	-9.53427
▁passed	-9.53453
▁あいつ	-9.53494
ped	-9.53547
なあ	-9.53616
最初	-9.5365
▁Today	-9.53651
▁wa	-9.53852
▁strange	-9.53875
ia	-9.53943
▁私たちの	-9.53966
伝	-9.54049
知ってる	-9.54052
ンド	-9.5417
乗り	-9.54184
▁wear	-9.54202
気に入	-9.54204
▁outside	-9.5423
M	-9.54242
▁consider	-9.54387
失敗	-9.54401
up	-9.54521
と思った	-9.54575
優	-9.54844
客	-9.54875
▁per	-9.54879
いっぱい	-9.54886
▁dollars	-9.54913
対	-9.55025
やら	-9.55028
▁taste	-9.55133
▁Look	-9.55145
リン	-9.55398
▁僕の	-9.55399
カー	-9.5544
▁taken	-9.55497
我々の	-9.55532
全く	-9.5563
▁team	-9.55771
port	-9.55779
▁raining	-9.55839
▁quiet	-9.55885
破	-9.55885
安	-9.55889
shi	-9.55997
へ行く	-9.56003
してる	-9.56041
許	-9.56134
▁telephone	-9.56137
反対	-9.56142
▁大	-9.56207
▁僕	-9.56221
れていた	-9.5626
させ	-9.5632
▁uncle	-9.56389
dy	-9.56397
近	-9.56403
事実	-9.56454
しようと	-9.56566
多	-9.56605
列車	-9.56612
▁past	-9.56618
情	-9.56625
▁shop	-9.56638
耳	-9.56642
▁umbrella	-9.56642
計画	-9.56645
▁evening	-9.5669
ート	-9.56693
に住んでいる	-9.567
が好き	-9.56712
▁deal	-9.5688
▁kid	-9.56909
事は	-9.56913
ned	-9.5694
ほう	-9.57003
▁U	-9.57084
読	-9.57096
行け	-9.57143
野	-9.57148
制	-9.5715
▁Monday	-9.5715
▁college	-9.5715
は大	-9.57201
日に	-9.57205
▁account	-9.57406
小さな	-9.57406
fa	-9.5744
嫌	-9.57524
番	-9.57596
▁wearing	-9.57639
満	-9.57644
▁forward	-9.57658
えて	-9.57747
を買った	-9.5778
週間	-9.57892
がいい	-9.57903
▁milk	-9.57918
俺	-9.57922
▁なんで	-9.57999
んでいる	-9.58036
あと	-9.58097
私には	-9.58146
▁garden	-9.58175
きっと	-9.58303
死んだ	-9.58361
▁begin	-9.58427
誕生日	-9.58432
母親	-9.58455
▁thinking	-9.58612
ian	-9.58625
痛	-9.58669
mon	-9.58683
はまだ	-9.58808
▁second	-9.5895
▁asleep	-9.5895
▁stopped	-9.58965
教えて	-9.58978
ップ	-9.59058
風邪	-9.59211
以前	-9.59328
てしまった	-9.59385
▁sl	-9.5939
なんです	-9.59459
子供たち	-9.5946
▁secret	-9.59463
嘘	-9.5947
▁black	-9.59477
取	-9.59636
ときに	-9.59651
way	-9.59668
▁baseball	-9.59731
▁traffic	-9.59731
読み	-9.5976
聞いた	-9.59775
ちゃ	-9.59927
フランス語を	-9.59969
のことを	-9.59986
▁worry	-9.59993
変	-9.60088
手に	-9.60363
相	-9.60468
結果	-9.60479
▁watching	-9.60506
を聞いて	-9.60507
▁Was	-9.60516
▁cook	-9.60562
らず	-9.60585
▁warm	-9.60636
事が	-9.60655
化	-9.60658
屋	-9.60678
▁means	-9.60688
▁glad	-9.60788
▁report	-9.60788
の方	-9.60792
調	-9.60984
ことがない	-9.61014
折	-9.61047
▁blue	-9.61047
▁restaurant	-9.61047
▁自分の	-9.61052
うまく	-9.6118
ことだ	-9.6122
wa	-9.61226
▁accept	-9.61312
チーム	-9.61312
▁Co	-9.61344
出席	-9.61394
▁日本	-9.61495
もいいですか	-9.61522
暗	-9.61555
▁R	-9.61567
卵	-9.61578
▁attend	-9.6158
▁Give	-9.61606
できなかった	-9.61651
行かない	-9.61693
もう一度	-9.61757
ved	-9.61779
交	-9.61813
すべての	-9.61888
伝え	-9.61936
聞	-9.61947
ぬ	-9.61965
ally	-9.62028
▁promise	-9.62102
田	-9.62112
勝	-9.62179
天	-9.62198
話した	-9.62245
酒	-9.6225
午後	-9.6227
▁enjoy	-9.62333
腕	-9.6238
予定	-9.62482
ard	-9.62498
させた	-9.62508
ink	-9.62683
止	-9.62702
▁dead	-9.62705
まず	-9.62763
あなたは	-9.62862
▁examination	-9.62919
まったく	-9.63035
old	-9.63043
彼らは	-9.63066
最も	-9.63076
民	-9.63098
ui	-9.63107
込	-9.63172
散歩	-9.63186
ホ	-9.63189
▁sky	-9.63189
父親	-9.63198
▁もっと	-9.63198
私も	-9.63205
our	-9.63413
産	-9.63421
ga	-9.63432
▁wouldn	-9.63456
▁bank	-9.6346
▁touch	-9.63464
▁Sa	-9.63486
ster	-9.63515
してくれた	-9.63601
独	-9.63605
突然	-9.63733
父	-9.63901
するな	-9.6392
▁いつ	-9.63975
責任	-9.64004
連絡	-9.64004
▁shall	-9.64004
よね	-9.64117
年に	-9.6415
車の	-9.64163
,000	-9.64182
▁forgot	-9.64233
合わせ	-9.64281
戦争	-9.64281
▁wine	-9.64448
▁str	-9.64464
くらい	-9.64485
▁smoke	-9.64551
正直	-9.64585
▁thank	-9.64682
目を	-9.64733
▁pre	-9.64772
姉	-9.64818
応	-9.64826
走	-9.6483
j	-9.64913
ないと	-9.64929
▁Mo	-9.64937
来週	-9.64944
自分が	-9.65036
休み	-9.6504
▁failed	-9.65071
隣	-9.65102
賛成	-9.65102
▁library	-9.65102
限	-9.65113
青	-9.65129
▁speaks	-9.65226
食べた	-9.65293
▁herself	-9.65378
▁seven	-9.65378
ほうがいい	-9.65406
パーティーに	-9.65541
質	-9.65651
▁lose	-9.65669
の上に	-9.65731
出発	-9.65766
▁fault	-9.65933
▁Go	-9.65945
▁5	-9.66002
ions	-9.66171
▁worked	-9.66209
恋	-9.66211
やすい	-9.66321
を教えて	-9.66339
怒	-9.66344
ったら	-9.66436
▁return	-9.66453
▁check	-9.66491
▁famous	-9.66491
線	-9.66491
あげた	-9.66671
はどこ	-9.66675
座	-9.66738
歯	-9.66759
村	-9.66771
▁quickly	-9.66816
!"	-9.6692
春	-9.67052
提案	-9.67053
▁desk	-9.67054
月に	-9.67057
欲しい	-9.67111
るだろう	-9.67158
食べ物	-9.67163
▁trying	-9.67272
素	-9.67333
▁safe	-9.67333
仕事に	-9.67362
▁succeed	-9.67581
円	-9.67607
▁husband	-9.67616
▁future	-9.67616
▁address	-9.67619
今朝	-9.67641
への	-9.6765
ってきた	-9.67679
▁vi	-9.67788
水を	-9.67792
▁この本は	-9.67811
▁count	-9.67875
カメラ	-9.67899
太陽	-9.679
何でも	-9.67901
▁move	-9.68089
はいつも	-9.68163
罪	-9.68178
馬	-9.68183
鳴	-9.68183
▁held	-9.68188
は彼の	-9.68204
▁彼は私の	-9.68223
ありがとう	-9.68242
▁Ken	-9.68249
we	-9.6836
ませんでした	-9.68376
▁sometimes	-9.68469
▁spend	-9.6848
ang	-9.68532
と思っている	-9.68548
▁彼には	-9.68594
くれませんか	-9.68653
楽しい	-9.68785
たくない	-9.68842
へ行った	-9.68871
と思うよ	-9.68889
▁Mi	-9.68965
盗	-9.68998
▁sign	-9.69032
大丈夫	-9.6904
適	-9.6904
▁swimming	-9.69046
教え	-9.6907
▁send	-9.6912
▁ここに	-9.69129
▁wash	-9.69216
念	-9.69219
ても	-9.6926
べきだ	-9.69312
等	-9.69328
▁favorite	-9.69331
男の子	-9.69334
面白い	-9.69337
▁noise	-9.69374
どうぞ	-9.69391
読んで	-9.69436
▁Bo	-9.69448
言語	-9.69526
転	-9.69596
吸	-9.69616
▁wrote	-9.69616
私たちに	-9.69644
ほしい	-9.69659
ical	-9.69716
覚え	-9.6973
ってしまった	-9.69804
他人	-9.69812
朝食	-9.69815
王	-9.69905
▁machine	-9.69905
人です	-9.70056
ボストンに	-9.70152
▁cross	-9.70195
▁easily	-9.70195
▁honest	-9.70195
▁prefer	-9.70195
▁women	-9.70198
殺	-9.70232
本は	-9.70244
▁Not	-9.70254
bu	-9.70262
食べる	-9.70372
方法	-9.70399
▁gets	-9.70445
ka	-9.70453
ロンドン	-9.70485
▁With	-9.70485
病院	-9.70487
もいい	-9.70515
ai	-9.70563
にいる	-9.70625
強い	-9.70627
書いて	-9.70635
状	-9.70776
▁London	-9.70777
▁newspaper	-9.70777
▁hungry	-9.70785
▁本当に	-9.70787
da	-9.70853
▁私は彼の	-9.70902
▁彼女	-9.70904
▁closed	-9.70949
▁camera	-9.71013
が欲しい	-9.71025
行動	-9.71117
▁walked	-9.71135
▁hi	-9.71209
良く	-9.71219
side	-9.71221
連	-9.71249
▁fl	-9.71259
に対して	-9.7129
弾	-9.71362
示	-9.71362
オーストラリア	-9.7142
19	-9.71614
▁But	-9.71659
▁ここで	-9.71681
持	-9.71767
▁miss	-9.71793
信	-9.71879
現	-9.71892
かけて	-9.71905
訳	-9.71951
のような	-9.72003
▁feeling	-9.72016
たんだ	-9.72019
を忘れ	-9.72155
ラン	-9.7218
▁mistakes	-9.72217
▁People	-9.72248
▁climb	-9.72248
ワイン	-9.72257
いただけますか	-9.72266
は何ですか	-9.72385
はありません	-9.72424
ough	-9.72425
一生懸命	-9.72527
いか	-9.72542
▁view	-9.72544
はいけません	-9.72544
▁Just	-9.72544
いう	-9.72701
いいよ	-9.72743
と同じ	-9.7283
que	-9.72842
温	-9.72842
▁明日は	-9.7285
銀行	-9.72851
すべき	-9.72877
▁これが	-9.72967
ating	-9.73013
暮らし	-9.73088
テーブル	-9.73134
野球	-9.73142
全然	-9.73146
聞こえ	-9.73216
▁On	-9.73235
わたし	-9.73344
座って	-9.73358
▁piano	-9.7344
道を	-9.73476
W	-9.73482
少	-9.73485
ロー	-9.73574
▁least	-9.7374
▁voice	-9.7374
になります	-9.73835
外出	-9.73888
しまった	-9.73918
彼ら	-9.74008
▁earth	-9.74041
Yes	-9.74074
▁トムと	-9.74084
ious	-9.74088
できません	-9.74088
泣き	-9.74156
▁Na	-9.74171
ite	-9.74217
▁Thanks	-9.74261
ないの	-9.74267
ach	-9.74269
収	-9.74324
▁questions	-9.74339
ドレス	-9.74402
なこと	-9.74409
ワ	-9.74417
一日	-9.74445
O	-9.74462
▁新しい	-9.74527
time	-9.74545
ship	-9.74589
冷	-9.74624
害	-9.74641
▁public	-9.74646
血	-9.74646
ran	-9.74659
宿題を	-9.74881
ug	-9.74911
バー	-9.74946
図書館	-9.7495
プレゼント	-9.7495
▁stayed	-9.74986
使い	-9.75059
どうやって	-9.75112
我々	-9.75118
費	-9.75236
▁solve	-9.75262
されて	-9.7527
▁running	-9.75273
▁ball	-9.75279
は今	-9.75315
負	-9.75364
▁card	-9.75395
背	-9.75561
例	-9.75561
減	-9.75561
▁prepar	-9.75567
▁treat	-9.7557
らなかった	-9.75607
▁works	-9.75642
▁彼は自分の	-9.7568
▁Ma	-9.75706
ろうと	-9.75743
元	-9.75756
お願い	-9.75839
器	-9.75868
資	-9.75868
ひどい	-9.75868
ボール	-9.75887
計画を	-9.75895
料	-9.7612
字	-9.76164
▁interested	-9.76396
のですが	-9.76418
人と	-9.76437
どうして	-9.76475
反	-9.76477
処	-9.76484
▁village	-9.76484
▁worth	-9.76484
と思って	-9.76494
00	-9.76578
C	-9.76639
▁誰が	-9.76729
みた	-9.76739
過	-9.76757
限り	-9.76781
▁Every	-9.76789
▁complain	-9.76794
▁smell	-9.76794
▁piece	-9.76801
av	-9.7681
▁eight	-9.76817
閉	-9.76842
▁completely	-9.76846
▁ship	-9.76978
▁Now	-9.77002
紙	-9.77064
両	-9.77095
▁doubt	-9.77105
テスト	-9.77125
ニュース	-9.77126
▁younger	-9.77133
んだろう	-9.77135
場合	-9.77137
速	-9.77205
時間を	-9.77242
会った	-9.77356
旅	-9.77398
なきゃ	-9.77411
▁experience	-9.77416
▁horse	-9.77416
タクシー	-9.77416
▁burn	-9.77418
ture	-9.77557
士	-9.77727
ヘ	-9.77728
敵	-9.77728
▁hurry	-9.77728
▁probably	-9.77728
▁ski	-9.77764
ビール	-9.77775
▁bread	-9.78042
子ども	-9.78043
物を	-9.78045
傷	-9.78247
ペ	-9.78264
計	-9.78307
▁takes	-9.7832
してるの	-9.78325
▁bath	-9.78358
iv	-9.78395
▁彼は私に	-9.78403
▁H	-9.78457
▁ice	-9.78499
フランス	-9.78505
られている	-9.78511
son	-9.7856
はほとんど	-9.78563
想	-9.78665
▁human	-9.78678
▁finally	-9.78708
はよく	-9.78764
使	-9.78821
逃げ	-9.78844
読んだ	-9.78897
▁Me	-9.78911
驚	-9.78912
てた	-9.78921
▁appear	-9.78979
冗談	-9.78988
撃	-9.78988
外国	-9.79006
▁post	-9.79015
▁spent	-9.79022
くなった	-9.79102
▁du	-9.79147
はいつ	-9.7916
▁どんな	-9.79219
▁res	-9.79245
▁explain	-9.79306
驚いた	-9.79382
あんな	-9.7963
出す	-9.79742
▁K	-9.79781
▁ジョンは	-9.79838
fu	-9.79865
赤ちゃん	-9.79949
ついに	-9.7996
になりたい	-9.79996
後に	-9.80007
▁tra	-9.80014
方がいいよ	-9.80017
寒い	-9.80031
かかった	-9.80097
人たち	-9.80142
ュ	-9.80225
彼女と	-9.8024
横	-9.80249
今度	-9.80262
ゆっくり	-9.80266
ure	-9.8028
数学	-9.80344
子供は	-9.80389
今まで	-9.80404
▁これらの	-9.80412
▁今日の	-9.80415
達は	-9.80418
▁彼女はその	-9.80464
どれ	-9.80497
切り	-9.80604
雨が	-9.80605
▁visited	-9.80656
▁私はこの	-9.80799
ここで	-9.80828
共	-9.80908
どれくらい	-9.80915
運動	-9.80935
▁arrive	-9.80954
▁top	-9.81019
ning	-9.81044
家を	-9.81059
▁vacation	-9.81232
▁floor	-9.81232
しないで	-9.81319
▁drinking	-9.81331
寝て	-9.81338
▁girls	-9.81339
っか	-9.81381
結	-9.81543
の方が	-9.81553
▁Tell	-9.81557
ue	-9.8156
▁form	-9.8174
▁eye	-9.81779
犯	-9.81876
ヒ	-9.81882
▁beer	-9.81903
▁雨	-9.81905
▁seeing	-9.8192
を買って	-9.82049
▁bear	-9.8206
▁6	-9.82088
いや	-9.82121
時は	-9.82122
案	-9.82194
戸	-9.82209
帽子	-9.82215
るな	-9.82222
飛	-9.82232
hose	-9.82324
英語の	-9.82358
ことある	-9.82397
欲	-9.82507
ード	-9.82545
ご飯	-9.82561
▁うちの	-9.82603
▁wo	-9.82642
えない	-9.82728
ることは	-9.82731
ring	-9.82772
半	-9.82791
▁express	-9.82866
▁written	-9.82866
道路	-9.82879
ward	-9.82889
ではなく	-9.83001
▁水	-9.83094
▁coat	-9.83108
▁played	-9.83143
ゆ	-9.83194
話せる	-9.83222
▁sell	-9.83233
▁eaten	-9.83476
視	-9.8348
けて	-9.83506
室	-9.83523
月曜日	-9.83527
目に	-9.83582
own	-9.83598
になり	-9.83675
つの	-9.83707
結婚した	-9.83722
あなたが	-9.83726
▁though	-9.83801
くれる	-9.8383
ぐらい	-9.83859
馬鹿	-9.8386
一杯	-9.83891
▁誰も	-9.83901
ときは	-9.83922
12	-9.84071
▁thirty	-9.84188
右	-9.84193
▁bill	-9.84194
早	-9.84271
時まで	-9.84329
さない	-9.8433
出かけ	-9.84462
側	-9.84527
▁color	-9.84527
番号	-9.84529
男性	-9.84568
▁broken	-9.84579
ton	-9.84591
▁sold	-9.84592
置	-9.84601
すぎて	-9.84804
なよ	-9.84836
容	-9.8486
ものを	-9.84867
年間	-9.84986
誰にも	-9.8509
試	-9.85114
きて	-9.8514
▁cr	-9.8517
決め	-9.85178
混	-9.85199
▁Christmas	-9.85199
▁Jane	-9.85199
太	-9.85535
量	-9.85537
▁concert	-9.85537
▁spring	-9.85546
T	-9.85736
▁crying	-9.85753
▁rule	-9.85855
形	-9.85856
存	-9.85873
経験	-9.85876
シャツ	-9.85876
接	-9.85876
しまう	-9.85878
やってみ	-9.85878
起こった	-9.859
▁expect	-9.85905
無理	-9.85933
お前	-9.85943
入った	-9.85954
落	-9.85992
げた	-9.85998
▁sent	-9.86088
書く	-9.86134
▁De	-9.86144
してしまった	-9.86161
ook	-9.86164
アン	-9.862
たかった	-9.86206
利用	-9.86244
▁moon	-9.86261
▁radio	-9.86322
ければ	-9.86333
テレビを見	-9.86343
▁eggs	-9.86358
仕	-9.86498
ゴ	-9.86528
時間が	-9.86553
門	-9.86558
社会	-9.86604
台	-9.86657
っちゃ	-9.86723
ick	-9.86779
出来	-9.86827
▁なぜ	-9.86861
▁animals	-9.86876
島	-9.869
▁cheap	-9.869
▁course	-9.869
▁Put	-9.86902
実際	-9.86911
▁add	-9.87067
なんだよ	-9.87179
▁paid	-9.87245
真実	-9.87276
▁imp	-9.87291
古	-9.87331
離れ	-9.87396
がありますか	-9.87408
はず	-9.87425
寝る	-9.87444
便	-9.87455
のせい	-9.87561
子供の	-9.87573
スポーツ	-9.87589
▁everybody	-9.87589
▁trust	-9.87589
クリスマス	-9.87589
▁Since	-9.87589
▁several	-9.87589
▁lend	-9.87593
board	-9.876
▁また	-9.87652
言われ	-9.87677
lf	-9.87777
▁law	-9.87912
かも	-9.87923
首	-9.87928
▁Everybody	-9.87935
▁impossible	-9.87935
▁popular	-9.87935
滞在	-9.87936
知らなかった	-9.87961
して下さい	-9.87987
▁Were	-9.8801
育	-9.88024
D	-9.88047
んじゃない	-9.88196
画	-9.88274
▁writing	-9.88282
大きい	-9.88284
▁boys	-9.88294
▁save	-9.88313
時々	-9.88398
顔を	-9.88427
合う	-9.88463
▁killed	-9.88496
What	-9.8861
和	-9.88622
▁weight	-9.88623
疑	-9.88627
床	-9.8863
地球	-9.88637
準備	-9.88643
名前を	-9.88656
先週	-9.88698
病	-9.88805
▁date	-9.88858
話して	-9.88873
絶	-9.88973
階	-9.88978
▁holiday	-9.8898
▁above	-9.88982
▁smile	-9.88983
を買う	-9.88995
▁Ko	-9.89189
何と	-9.89204
キス	-9.89229
議	-9.89274
かけた	-9.89322
秘密	-9.89331
ak	-9.89371
が一番	-9.89421
当て	-9.89428
なぁ	-9.89434
くなる	-9.89468
していない	-9.89547
なった	-9.89593
▁Mar	-9.89603
▁cry	-9.89653
式	-9.89676
橋	-9.89683
短	-9.89683
▁Nobody	-9.89683
どっち	-9.89683
わけではない	-9.89731
せる	-9.89743
受け	-9.89746
じゃないよ	-9.89815
歩	-9.89864
上手に	-9.89955
切れ	-9.89968
ble	-9.90014
原	-9.90035
▁Keep	-9.90036
▁television	-9.90036
▁anymore	-9.90036
が出	-9.90163
のある	-9.902
決	-9.90257
前の	-9.90259
コーヒーを	-9.90283
▁chair	-9.90382
汚	-9.90391
▁Stop	-9.90391
遅刻	-9.90393
空港	-9.90397
調べ	-9.90406
▁necessary	-9.90418
私より	-9.9043
18	-9.90441
分かる	-9.90449
if	-9.90456
出身	-9.90486
なぜ	-9.90596
出た	-9.90669
介	-9.90746
裏	-9.90747
幸福	-9.90747
▁fail	-9.90782
ual	-9.90785
でしょ	-9.90794
はどこですか	-9.90899
一度	-9.91029
言っている	-9.91059
▁given	-9.91074
ギ	-9.91094
煙	-9.91099
なければなりません	-9.91104
▁till	-9.91104
ヶ月	-9.91112
No	-9.91114
人々は	-9.91142
出し	-9.91334
▁anybody	-9.91462
▁driving	-9.91462
▁hundred	-9.91462
そこへ	-9.91482
lic	-9.91498
傘	-9.91589
自由	-9.91599
いくつか	-9.91602
▁20	-9.91642
chi	-9.91731
ice	-9.91762
ピアノ	-9.91822
▁borrow	-9.91822
部屋に	-9.91828
▁information	-9.91831
子は	-9.91842
▁taxi	-9.91904
ものです	-9.91919
▁Ho	-9.91929
泳	-9.92089
分かって	-9.92105
ニューヨーク	-9.92183
街	-9.92183
赤ん坊	-9.92183
教師	-9.92186
感謝	-9.9219
昼食	-9.92199
飛び	-9.92209
重要	-9.92278
黒	-9.92336
N	-9.92529
▁York	-9.92545
湖	-9.92545
入り	-9.9259
ころ	-9.92624
スキー	-9.9263
▁sad	-9.9267
▁seem	-9.92718
静	-9.92838
公	-9.92899
机	-9.92909
▁joke	-9.92909
左	-9.92909
▁cur	-9.92984
上の	-9.93061
つけた	-9.93073
▁suit	-9.93088
力を	-9.93118
生まれた	-9.9314
▁私は彼に	-9.93202
に着いた	-9.93225
で一番	-9.93248
▁昨夜	-9.93274
ラジオ	-9.93274
帰宅	-9.93277
してくれ	-9.93291
飲む	-9.93298
おい	-9.93335
▁すぐに	-9.93362
っていない	-9.93372
もある	-9.93402
▁wall	-9.93488
はこの	-9.93493
▁la	-9.93508
▁needs	-9.93516
治	-9.93637
▁difference	-9.93643
させる	-9.9374
君が	-9.93786
大きく	-9.939
かし	-9.93957
おう	-9.9398
思い出	-9.93994
ティ	-9.93994
▁peace	-9.94008
ゲーム	-9.94008
っぱ	-9.94025
なんと	-9.94028
▁Get	-9.94034
あげる	-9.94068
飲	-9.94116
止め	-9.94119
ソ	-9.943
tter	-9.94309
迷	-9.94373
レストラン	-9.94377
弱	-9.94377
▁subject	-9.94379
どのくらい	-9.94388
され	-9.94433
言わない	-9.94454
ひどく	-9.94488
日本人	-9.94495
遅く	-9.9452
するだろう	-9.94555
そして	-9.94555
▁laugh	-9.94576
▁government	-9.94747
経済	-9.9475
急いで	-9.94751
買い	-9.94824
着く	-9.94876
ことはない	-9.94899
ことで	-9.9507
暇	-9.95109
▁changed	-9.95125
づ	-9.95227
なのよ	-9.95296
させて	-9.95297
あって	-9.95433
ことができる	-9.95438
ごめん	-9.95464
僕が	-9.95481
海外	-9.95485
脱	-9.95492
▁situation	-9.95492
未	-9.95492
高校	-9.95502
11	-9.95514
▁sitting	-9.95518
考えて	-9.95588
わかる	-9.95615
事に	-9.95622
後で	-9.95622
書いた	-9.95717
▁tie	-9.95787
▁trees	-9.95798
加	-9.95834
▁custom	-9.95867
勢	-9.95867
▁correct	-9.95867
▁stood	-9.95867
▁airport	-9.95881
▁offer	-9.95898
ところで	-9.95959
てくれ	-9.95983
呼	-9.96054
▁hardly	-9.96184
とこ	-9.9621
▁built	-9.96243
五	-9.96243
▁shopping	-9.96249
▁low	-9.96257
はあまり	-9.96338
ob	-9.96341
するよ	-9.96367
ではなかった	-9.96449
▁Re	-9.96508
なので	-9.96582
ェ	-9.96582
格	-9.96593
百	-9.9662
間違え	-9.9662
型	-9.9662
二度と	-9.9662
られて	-9.96753
▁im	-9.96753
ities	-9.96764
を与え	-9.96789
僕は	-9.9683
告	-9.96883
P	-9.9689
ame	-9.96961
イギリス	-9.96999
涙	-9.96999
建物	-9.97015
得意	-9.97031
パリ	-9.97035
を見つけ	-9.97038
解決	-9.97069
車で	-9.97143
▁Lo	-9.97168
▁sleeping	-9.97242
除	-9.97379
▁perfect	-9.97379
姿	-9.97379
▁match	-9.9738
▁ought	-9.97412
なんで	-9.97531
頭が	-9.97545
どこか	-9.97646
▁dogs	-9.97676
きれい	-9.97732
▁Da	-9.97733
貧	-9.9774
賞	-9.9776
▁depend	-9.97761
だけで	-9.97797
必要がある	-9.97901
▁Ch	-9.97966
▁land	-9.9802
掛け	-9.98141
軽	-9.98143
固	-9.98144
▁absent	-9.98144
▁drunk	-9.98144
買い物	-9.98244
目的	-9.98247
やっと	-9.98297
はある	-9.98346
果	-9.98415
one	-9.98415
昼	-9.98421
▁certain	-9.98423
そこで	-9.98425
届	-9.98528
英語で	-9.9857
を知っている	-9.98582
を守	-9.98628
▁sing	-9.98712
ができ	-9.9876
個	-9.98787
かなかった	-9.98795
お茶	-9.98819
▁quit	-9.98895
曲	-9.98904
四	-9.98914
▁join	-9.98915
余	-9.98915
コンピューター	-9.98919
情報	-9.98921
▁sub	-9.98955
時半	-9.98963
電話を	-9.98993
いつでも	-9.99076
言ったこと	-9.99092
わり	-9.99162
いけない	-9.99213
位	-9.9928
▁danger	-9.99293
▁Paris	-9.99302
▁foot	-9.99302
国の	-9.99318
全員	-9.99322
▁manage	-9.99333
▁次の	-9.9937
▁walking	-9.99411
車が	-9.99438
遅れた	-9.99524
▁driver	-9.99561
欠	-9.99665
予	-9.99667
ザ	-9.99687
▁girlfriend	-9.99691
▁studied	-9.99691
コンサート	-9.99691
▁mouth	-9.99691
▁body	-9.99692
▁tears	-9.99713
勉強する	-9.99724
知って	-9.99734
▁months	-9.99764
▁received	-9.99797
でない	-9.99892
▁spoke	-9.99899
勉強し	-9.99928
ake	-10.0004
▁glass	-10.0004
配	-10.0005
投	-10.0007
▁Di	-10.0008
米	-10.0008
▁shut	-10.0008
頂	-10.0008
守	-10.0037
▁先生は	-10.0042
しばらく	-10.0047
いただけませんか	-10.0048
▁club	-10.0049
▁lake	-10.0049
なくなった	-10.008
▁draw	-10.0087
善	-10.0087
▁enter	-10.0098
▁learning	-10.0108
無駄	-10.0114
はっきり	-10.0116
40	-10.0121
を受けた	-10.0122
るのが	-10.0122
従	-10.0124
なければならなかった	-10.0126
▁leaving	-10.0126
▁university	-10.0126
造	-10.0126
酔	-10.0126
▁boss	-10.0126
終わり	-10.0127
取った	-10.0128
できた	-10.0131
▁mail	-10.0132
gotten	-10.014
人々	-10.014
開け	-10.0151
ピ	-10.016
今夜	-10.016
▁recently	-10.0169
ずに	-10.018
▁apple	-10.0185
帰り	-10.0188
週末	-10.019
▁すみません	-10.0198
だったら	-10.0199
▁By	-10.0199
▁sweet	-10.0206
くなって	-10.0208
▁テレビ	-10.0209
ress	-10.021
認	-10.0211
▁learned	-10.0213
ベル	-10.0217
▁Oh	-10.0224
まれ	-10.023
見る	-10.0231
▁See	-10.0244
葉	-10.0244
報	-10.0245
演	-10.0246
程	-10.0246
▁patient	-10.0246
カナダ	-10.0246
サッカー	-10.0246
京都	-10.0247
▁ring	-10.0251
▁meat	-10.0252
ひとり	-10.0254
ところに	-10.0266
▁serious	-10.0275
お腹	-10.028
るために	-10.0284
▁bridge	-10.0286
▁member	-10.0286
雨が降り	-10.0287
▁leaves	-10.0287
去年	-10.029
起き	-10.0291
暑い	-10.0297
っこ	-10.0298
抜	-10.0299
はじめ	-10.0302
押し	-10.0307
▁トムはメアリーに	-10.0309
▁languages	-10.0311
▁Hi	-10.0312
▁German	-10.0315
警察	-10.0316
▁彼らの	-10.0324
vo	-10.0326
ビル	-10.0326
メアリーに	-10.0326
▁Kyoto	-10.0326
▁habit	-10.0326
低	-10.0326
将来	-10.0327
15	-10.0332
▁weekend	-10.0332
先生は	-10.0336
▁helped	-10.0336
隠	-10.0339
終	-10.034
合い	-10.0341
待ち	-10.0345
わなかった	-10.0346
部屋を	-10.0362
▁expected	-10.0364
ていない	-10.0365
枚	-10.0367
細	-10.0367
▁breath	-10.0367
壁	-10.0367
▁V	-10.0372
相手	-10.0374
▁opened	-10.0378
覚えて	-10.0383
いつか	-10.0384
能	-10.0393
のだが	-10.0398
支	-10.0405
描	-10.0407
▁Europe	-10.0407
▁fruit	-10.0407
現在	-10.0408
▁moved	-10.0408
▁suddenly	-10.0415
連れて	-10.0423
近い	-10.0441
打	-10.0446
▁shirt	-10.0448
▁Jim	-10.0448
▁common	-10.0448
っぽ	-10.0449
休暇	-10.0449
くれない	-10.047
けた	-10.0474
好きじゃない	-10.0479
ファ	-10.0488
済	-10.0489
千	-10.0489
規則	-10.0489
▁remain	-10.0489
▁Smith	-10.0489
御	-10.0489
▁charge	-10.0489
結局	-10.0489
▁rice	-10.049
▁sale	-10.0491
静かに	-10.0497
電気	-10.0507
われた	-10.0507
light	-10.051
遠く	-10.0525
るのに	-10.0526
土	-10.0528
cc	-10.0528
周	-10.053
▁smart	-10.053
しゃべ	-10.0531
▁nine	-10.0532
まもなく	-10.0535
貸	-10.0537
がありません	-10.0539
▁due	-10.0546
働き	-10.0549
忠告	-10.0552
▁pla	-10.0565
買え	-10.0569
装	-10.0572
奴	-10.0572
に違いない	-10.0572
パソコン	-10.0572
▁continue	-10.0572
当然	-10.0573
▁teach	-10.0577
そういう	-10.0577
込んだ	-10.0588
末	-10.0588
て下さい	-10.0588
ばか	-10.0606
ことです	-10.0607
安い	-10.0607
するために	-10.0608
タバコ	-10.0613
専	-10.0613
小さい	-10.0613
深い	-10.0629
▁loves	-10.0631
してた	-10.0631
ぜ	-10.0634
すべきだ	-10.0638
税	-10.0655
骨	-10.0655
フィ	-10.0655
以外	-10.0657
期待	-10.0657
打ち	-10.0658
宿題	-10.0665
飲んで	-10.0665
バイ	-10.0678
に住んで	-10.0681
こんな	-10.0682
お願いします	-10.0691
タイ	-10.0695
片	-10.0696
▁practice	-10.0697
▁昨日は	-10.0697
▁missed	-10.07
あなたを	-10.0703
▁cause	-10.0711
Y	-10.0711
都市	-10.0715
ile	-10.0724
▁私は彼が	-10.0727
に会った	-10.0729
続け	-10.0731
ないでください	-10.0731
▁either	-10.0739
▁support	-10.0739
援助	-10.0739
▁United	-10.0739
▁fear	-10.0739
ッチ	-10.0748
は全く	-10.0754
泣	-10.0758
for	-10.0764
ようとした	-10.0766
▁bird	-10.0767
▁Dr	-10.0769
遊び	-10.0782
プロ	-10.0784
▁cool	-10.0787
▁slowly	-10.0788
▁ボストン	-10.0794
そうな	-10.08
パー	-10.0801
ev	-10.0813
フランス語が	-10.0815
晴れ	-10.082
・・・	-10.0823
▁regard	-10.0823
▁Sorry	-10.0823
▁storm	-10.0823
▁Bill	-10.0823
うん	-10.0824
と言う	-10.0832
ぁ	-10.0846
宅	-10.0865
▁blood	-10.0866
▁earthquake	-10.0866
▁stupid	-10.0866
ォ	-10.0866
値段	-10.0866
教育	-10.0866
▁countries	-10.0867
▁area	-10.087
▁あなたに	-10.0873
好きだ	-10.0878
できるだけ	-10.0881
あっ	-10.0883
ute	-10.0886
▁movies	-10.089
ible	-10.0897
あらゆる	-10.0909
平和	-10.091
▁dangerous	-10.091
▁rose	-10.091
言えば	-10.0912
願	-10.0921
を変え	-10.0921
選手	-10.0932
負け	-10.0936
▁talked	-10.0943
を見る	-10.0946
▁suggest	-10.0952
▁history	-10.0952
地震	-10.0952
▁blame	-10.0957
出る	-10.0984
と言って	-10.0986
を見つけた	-10.0986
分け	-10.0988
▁And	-10.0994
▁regret	-10.0995
いろいろ	-10.0995
▁gift	-10.0995
倍	-10.0995
携帯	-10.0995
満足	-10.0995
▁rid	-10.1034
同意	-10.1035
権	-10.1037
▁church	-10.1038
▁cloud	-10.1038
▁object	-10.1038
かかる	-10.1041
ダメ	-10.1042
ことはできない	-10.1055
もらえますか	-10.106
受	-10.1065
抜け	-10.1067
ping	-10.1069
教	-10.107
老	-10.1071
るべきだ	-10.1072
関	-10.1077
▁deep	-10.1077
ピー	-10.108
▁condition	-10.1081
歴史	-10.1081
すばらしい	-10.1081
ベッド	-10.1082
日本に	-10.1084
▁nor	-10.1084
を聞いた	-10.1087
毎朝	-10.1092
ack	-10.1095
▁あの人	-10.1103
人気	-10.1104
自動車	-10.111
▁minute	-10.1116
抱	-10.1117
働いて	-10.1121
完	-10.1124
▁favor	-10.1124
▁decision	-10.1125
虫	-10.1125
▁Mother	-10.1128
どうしても	-10.1132
▁警察は	-10.1136
を使って	-10.114
帰	-10.1142
▁lying	-10.1145
わかった	-10.1155
▁Ro	-10.1156
その仕事を	-10.1157
ところだ	-10.1161
お金が	-10.1165
▁Because	-10.1167
ヨーロッパ	-10.1169
今日は	-10.117
んですよ	-10.117
決心	-10.1172
▁fight	-10.1175
れなかった	-10.1182
子供が	-10.1184
▁トムはメアリーの	-10.1189
わよ	-10.1191
▁singer	-10.1195
しますか	-10.1197
氏	-10.1201
gar	-10.1208
信じて	-10.121
▁bar	-10.1211
赤い	-10.1211
▁God	-10.1213
団	-10.1213
▁character	-10.1213
▁worried	-10.1213
偶然	-10.1213
▁distance	-10.1213
んでいた	-10.1215
▁state	-10.1222
痛み	-10.1223
老人	-10.1223
できますか	-10.1224
犬が	-10.1228
無い	-10.1236
▁mis	-10.1239
▁interest	-10.1248
まるで	-10.125
謝	-10.1256
▁States	-10.1257
▁proposal	-10.1257
警官	-10.1257
▁loud	-10.1257
たいへん	-10.1257
泳ぎ	-10.1259
持ってる	-10.1264
会合	-10.1267
列車は	-10.1269
▁rise	-10.1271
空気	-10.1272
扱	-10.1272
▁hu	-10.1275
詩	-10.1279
▁fat	-10.13
構	-10.1301
停	-10.1302
▁season	-10.1303
教会	-10.1305
一日中	-10.1307
続けた	-10.1318
val	-10.1328
ぼく	-10.133
に対する	-10.133
次の	-10.133
ide	-10.1333
何時に	-10.134
▁among	-10.1346
牛乳	-10.1346
予約	-10.1347
▁dance	-10.1348
いたい	-10.1362
出かける	-10.1362
価値	-10.1386
覚	-10.1387
富	-10.1391
▁thousand	-10.1391
▁couple	-10.1391
▁lock	-10.1391
必要な	-10.1392
困難	-10.1393
▁staying	-10.14
▁player	-10.1403
荷物	-10.1404
分かった	-10.1408
離	-10.1416
▁mad	-10.1417
仕事が	-10.1419
彼らの	-10.1425
重要な	-10.1428
コー	-10.1435
証	-10.1435
▁Chinese	-10.1436
▁respect	-10.1437
単語	-10.1438
喜んで	-10.144
終え	-10.1442
が必要だ	-10.1445
▁sur	-10.1447
帰って	-10.1455
▁もう少し	-10.1459
この問題	-10.1462
そうです	-10.1464
づけ	-10.1465
出来る	-10.1471
日曜日に	-10.1477
単	-10.1479
塩	-10.1481
▁attention	-10.1481
順	-10.1481
go	-10.1483
▁lack	-10.1484
合わない	-10.1485
かわいい	-10.1494
ナー	-10.1495
持っている	-10.1501
不足	-10.1501
▁loved	-10.151
こんなに	-10.1516
任	-10.1516
オーストラリアに	-10.1518
戻って	-10.1521
することは	-10.1523
に行きます	-10.1526
ョ	-10.1527
軍	-10.1527
▁Excuse	-10.1527
▁Father	-10.1527
▁power	-10.1527
議論	-10.1528
▁problems	-10.1529
コン	-10.1532
▁waste	-10.1537
修理	-10.1548
ub	-10.1551
ことがありますか	-10.1559
を作って	-10.1564
▁green	-10.1573
▁Jack	-10.1573
死ぬ	-10.1575
▁illness	-10.1575
釣り	-10.1576
こそ	-10.158
▁Ca	-10.1583
▁Try	-10.1583
▁あれは	-10.1604
men	-10.161
▁seemed	-10.1614
校	-10.1615
備	-10.1617
トイレ	-10.1618
▁earlier	-10.1618
読書	-10.1621
辺	-10.1622
ならない	-10.1634
ダー	-10.1637
▁shower	-10.1642
▁pictures	-10.1642
リア	-10.1649
成功する	-10.1661
刻	-10.1664
養	-10.1664
▁sugar	-10.1665
付き	-10.1665
注文	-10.1665
なくてはならない	-10.1665
リンゴ	-10.1665
▁careless	-10.167
▁cute	-10.1671
働く	-10.1671
▁トムには	-10.1673
▁heat	-10.1678
▁toward	-10.1689
かせ	-10.169
ブラ	-10.1694
寝た	-10.1695
ash	-10.1698
両親は	-10.1699
増	-10.17
ここにいる	-10.1703
父の	-10.171
ねばならない	-10.1711
▁Good	-10.1711
▁product	-10.1711
ことができた	-10.1718
を持っています	-10.1724
教えてください	-10.1725
▁彼はいつも	-10.1732
トムと	-10.1736
と思いますか	-10.1739
マー	-10.1741
計画は	-10.1745
科	-10.1755
いかがですか	-10.1755
判	-10.1756
率	-10.1757
▁record	-10.1757
▁grew	-10.1757
たとえ	-10.1762
るべき	-10.1781
マン	-10.1786
ワー	-10.1791
のかな	-10.1792
▁somewhere	-10.1804
すっかり	-10.1804
▁step	-10.1805
▁succeeded	-10.181
めっちゃ	-10.1811
急に	-10.1828
最近	-10.183
を見せて	-10.184
▁cooking	-10.1844
スク	-10.1848
失敗した	-10.1848
退	-10.185
▁except	-10.1851
▁salt	-10.1853
年上	-10.1853
▁flower	-10.1856
ya	-10.1857
着いた	-10.1866
を探して	-10.1873
▁apples	-10.1876
その事故	-10.1881
shed	-10.1885
誰が	-10.1887
皿	-10.1898
▁exactly	-10.1898
▁kitchen	-10.1898
▁natural	-10.1898
▁president	-10.1898
▁purpose	-10.1898
▁sports	-10.1898
ちゃう	-10.1899
▁bright	-10.19
▁meaning	-10.1901
実行	-10.1907
火事	-10.1911
考える	-10.1921
▁reached	-10.1926
になっている	-10.1938
声を	-10.1943
▁pencil	-10.1946
留守	-10.1946
ラー	-10.1946
▁project	-10.1946
失礼	-10.1947
兄弟	-10.1947
してくれる	-10.1948
最高	-10.1949
nder	-10.195
笑い	-10.1965
送り	-10.1969
▁single	-10.1971
L	-10.1974
,"	-10.1975
られなかった	-10.1978
他に	-10.198
図	-10.1991
異	-10.1992
務	-10.1993
浮	-10.1993
池	-10.1993
▁advance	-10.1993
▁apologize	-10.1993
▁bottle	-10.1993
▁grandfather	-10.1993
▁repair	-10.1993
積	-10.1993
原因	-10.1993
明らか	-10.1993
▁failure	-10.1994
うそ	-10.1994
住所	-10.1997
学校の	-10.1998
ないといけない	-10.2
ックス	-10.2026
聴	-10.2041
移	-10.2041
▁knowledge	-10.2041
▁carried	-10.2041
と私は	-10.2045
うまくい	-10.2046
▁Bob	-10.205
ところです	-10.2054
中国	-10.2056
たいてい	-10.2063
結婚する	-10.2078
がたくさん	-10.2081
▁none	-10.2082
非	-10.2088
言え	-10.2102
うれしい	-10.2104
▁beat	-10.2107
歩き	-10.2111
▁hill	-10.2115
友	-10.2116
有名な	-10.2117
きなさい	-10.2129
学校を	-10.2129
▁belong	-10.2137
▁escape	-10.2137
影響	-10.2137
尊敬	-10.2137
▁wise	-10.2138
ドイツ	-10.2145
するように	-10.2162
▁Any	-10.2166
ことにした	-10.2172
なっている	-10.2174
類	-10.2178
怒って	-10.2178
礼	-10.2185
▁drop	-10.2185
大統領	-10.2186
▁capital	-10.2186
▁effect	-10.2186
▁figure	-10.2186
▁worse	-10.2186
ション	-10.2186
▁major	-10.2186
のおかげで	-10.2186
▁boat	-10.2186
▁ground	-10.2187
▁wake	-10.2189
日曜日	-10.219
▁rules	-10.2193
二つ	-10.2197
多く	-10.2197
捕	-10.2198
誰でも	-10.22
を食べた	-10.2209
別の	-10.2222
▁weak	-10.2231
師	-10.2234
ってるよ	-10.2234
惑	-10.2234
参	-10.2234
角	-10.2235
しばしば	-10.2235
沈	-10.2235
財布	-10.2235
切符	-10.2235
楽しかった	-10.2237
▁glasses	-10.224
忘れた	-10.2247
組	-10.2253
もらえ	-10.2254
になると	-10.2255
行きます	-10.2259
私達の	-10.2273
gi	-10.2277
▁inside	-10.2279
▁round	-10.228
突	-10.2283
▁England	-10.2284
▁twice	-10.2284
▁earn	-10.2284
▁intend	-10.2285
▁type	-10.2285
に行きたい	-10.2288
メール	-10.2289
▁enjoyed	-10.2293
▁supposed	-10.2294
ありますか	-10.2308
喜	-10.2326
どうか	-10.2329
やり方	-10.233
による	-10.2332
草	-10.2333
▁special	-10.2333
普段	-10.2333
背が高い	-10.2333
誘	-10.2333
▁develop	-10.2333
快	-10.2333
▁jump	-10.2333
▁immediately	-10.2335
白い	-10.2336
がたくさんある	-10.2338
足を	-10.2342
▁fishing	-10.2342
line	-10.2343
アメリカ人	-10.2346
楽しみ	-10.2346
しゃ	-10.2348
家に帰	-10.235
▁standing	-10.2353
omp	-10.2353
▁soup	-10.2354
来年	-10.2355
食べたい	-10.2375
勝つ	-10.2375
▁listening	-10.2379
▁notice	-10.2381
題	-10.2382
▁fresh	-10.2383
秋	-10.2383
雲	-10.2383
▁delicious	-10.2383
鉛筆	-10.2383
砂糖	-10.2383
趣味	-10.2383
存在	-10.2383
▁loss	-10.2383
▁proud	-10.2386
▁planning	-10.2387
僕に	-10.239
▁stolen	-10.2391
彼らに	-10.2396
後ろ	-10.2397
ことができない	-10.2402
てくれた	-10.2406
▁Po	-10.2411
ise	-10.2419
落ちた	-10.2424
件	-10.243
▁fool	-10.2431
▁rock	-10.2433
泳ぐ	-10.2434
コート	-10.244
ってください	-10.2447
受け取	-10.2456
我が	-10.2463
医	-10.2472
買って	-10.2476
映画を見	-10.2481
▁Children	-10.2482
▁suffer	-10.2482
ッド	-10.2484
▁art	-10.2484
▁sort	-10.2485
▁waited	-10.2498
▁carefully	-10.2505
ものだった	-10.2505
おります	-10.251
その問題	-10.2512
日間	-10.2513
▁ここは	-10.2518
友達が	-10.2521
さま	-10.2529
家で	-10.253
根	-10.2532
助	-10.2532
▁France	-10.2533
▁amount	-10.2533
▁injured	-10.2533
▁magazine	-10.2533
▁twenty	-10.2533
おいて	-10.2534
めったに	-10.2534
▁action	-10.2534
▁master	-10.2535
▁policeman	-10.2535
▁beach	-10.254
▁island	-10.2543
機会	-10.2544
お昼	-10.2544
飲んだ	-10.2545
するのに	-10.2545
▁telling	-10.2545
レス	-10.2546
ial	-10.2548
会え	-10.2556
▁realize	-10.2564
中です	-10.2566
犬を	-10.2566
もうすぐ	-10.2574
▁harder	-10.2575
どんなに	-10.2576
匹	-10.2583
区	-10.2583
▁marry	-10.2583
だめ	-10.2585
いただき	-10.2591
▁returned	-10.2592
▁invited	-10.2594
▁flu	-10.2596
学校で	-10.2599
が必要	-10.2599
ブル	-10.2602
のは難しい	-10.2613
▁Se	-10.2614
われる	-10.2618
▁日本は	-10.2622
リスト	-10.2623
▁discuss	-10.2628
嵐	-10.2634
翻訳	-10.2634
▁cream	-10.2634
▁Never	-10.2635
呼び	-10.2637
聞く	-10.2647
歩く	-10.2648
▁upon	-10.265
に住んでいます	-10.266
てくれる	-10.2663
▁tax	-10.2673
間違って	-10.2676
車に	-10.2679
北	-10.2685
微	-10.2685
▁gain	-10.2685
に関して	-10.2685
▁この部屋	-10.2687
切手	-10.269
▁Al	-10.2697
▁私たちが	-10.2701
▁usual	-10.2705
ちゃんと	-10.2707
▁using	-10.2718
振り	-10.2723
▁entered	-10.2726
というのは	-10.2728
歌手	-10.2729
わず	-10.2733
路	-10.2734
並	-10.2736
叫	-10.2736
▁empty	-10.2736
▁increase	-10.2736
包	-10.2736
暴	-10.2736
▁Turn	-10.2736
▁fair	-10.2736
二人とも	-10.2738
歩いた	-10.2747
きている	-10.2749
gen	-10.2754
▁kill	-10.2757
シー	-10.2767
お待ち	-10.2769
トムとメアリー	-10.277
大好き	-10.2771
500	-10.2785
問	-10.2786
冷蔵庫	-10.2788
▁beauty	-10.2788
囲	-10.2788
▁throw	-10.2788
▁guess	-10.2788
▁trans	-10.2788
ache	-10.2788
置いて	-10.2789
▁finger	-10.2789
試験に	-10.28
長く	-10.2802
駅まで	-10.2802
▁cap	-10.2803
時計を	-10.2814
有名	-10.2814
200	-10.2815
It	-10.2816
上げた	-10.2817
英	-10.2821
建て	-10.2823
▁ability	-10.2824
はいけない	-10.2836
送って	-10.2836
製	-10.2838
▁stomach	-10.2839
ナイフ	-10.2839
おいしい	-10.2843
▁flat	-10.2843
ative	-10.2849
▁math	-10.2855
▁今夜は	-10.2857
家にいる	-10.2869
こっち	-10.2878
▁watched	-10.2879
ease	-10.2889
▁neighbor	-10.2891
弁護士	-10.2892
▁collect	-10.2892
▁general	-10.2892
▁market	-10.2892
法律	-10.2892
給料	-10.2892
次第	-10.2892
合った	-10.2896
をお願いします	-10.2903
▁lead	-10.2904
俺の	-10.2906
トン	-10.2914
にあった	-10.2929
貴	-10.2933
cent	-10.2941
経	-10.2943
▁judge	-10.2944
ology	-10.2944
▁Nothing	-10.2944
自然	-10.2945
信頼	-10.2946
▁rent	-10.2946
▁painting	-10.2948
しまって	-10.2952
一週間	-10.2956
になりました	-10.2959
ちゃん	-10.2962
若者	-10.2969
かしら	-10.2973
amp	-10.2989
我慢	-10.2995
散	-10.2996
毛	-10.2996
Tatoeba	-10.2997
▁appreciate	-10.2997
▁Two	-10.2997
▁scene	-10.2997
▁alive	-10.2999
▁Mt	-10.3002
多い	-10.3004
▁rang	-10.3005
かん	-10.3008
Do	-10.3014
何が起こ	-10.3018
風が	-10.3018
出発した	-10.3023
悪く	-10.3027
父は	-10.3037
ism	-10.304
ないんだよ	-10.304
好きです	-10.3046
ized	-10.3047
合って	-10.3047
▁knife	-10.3049
防	-10.3049
▁Everything	-10.3049
状態	-10.305
成功した	-10.3051
考えた	-10.3051
音が	-10.3051
多分	-10.3056
調子	-10.306
いれば	-10.3061
になるだろう	-10.3062
森	-10.3063
▁oil	-10.3065
work	-10.3066
いていた	-10.3068
▁reach	-10.3072
去	-10.3084
列	-10.3095
政治	-10.3101
象	-10.3102
遅れて	-10.3103
▁million	-10.3103
踊	-10.3103
▁hang	-10.3103
説得	-10.3103
学校は	-10.3105
売り	-10.3112
それとも	-10.3113
▁page	-10.3116
えている	-10.3119
恐	-10.3128
週	-10.315
給	-10.3155
勤	-10.3156
▁boyfriend	-10.3156
▁group	-10.3156
▁soccer	-10.3156
改	-10.3156
診	-10.3156
田舎	-10.3156
▁personal	-10.3157
貸して	-10.3157
曲が	-10.3158
▁しかし	-10.3159
結婚して	-10.3159
倒	-10.316
働いた	-10.3162
できて	-10.3164
だったので	-10.3174
を食べる	-10.318
っちゃった	-10.3189
この辺	-10.3205
人も	-10.3209
設	-10.321
態度	-10.3211
判断	-10.3211
冊	-10.3214
祖父	-10.3217
作り	-10.3225
どのように	-10.3227
ily	-10.3234
読む	-10.3238
起きた	-10.3251
逆	-10.3264
▁rumor	-10.3264
▁Their	-10.3264
さらに	-10.3266
信用	-10.3268
▁butter	-10.3276
▁gas	-10.3284
▁crowd	-10.3286
点で	-10.3309
ドイツ語	-10.331
雨が降って	-10.3311
再	-10.3316
使って	-10.3317
▁afford	-10.3318
▁contact	-10.3318
▁guitar	-10.3318
八	-10.3318
泥棒	-10.3318
ごらん	-10.3318
上がった	-10.332
長い間	-10.3323
いたします	-10.3324
が痛い	-10.3328
▁Sha	-10.3337
▁わたしは	-10.3341
んだよね	-10.3343
room	-10.3348
B	-10.3349
辞	-10.3353
やす	-10.3358
電話して	-10.3361
気をつけ	-10.3369
遊んで	-10.3373
▁exercise	-10.3373
辛	-10.3373
スープ	-10.3373
なかなか	-10.3373
ger	-10.3376
▁stranger	-10.3377
誤り	-10.3377
を止め	-10.3387
そんなことを	-10.3387
▁lay	-10.339
学者	-10.3394
▁Ka	-10.3394
▁efforts	-10.3401
▁Mu	-10.3405
してはいけない	-10.3408
行われ	-10.3408
われ	-10.3419
を見ると	-10.3424
行きたい	-10.3425
キー	-10.3426
基	-10.3428
素晴らしい	-10.3428
’	-10.3428
▁Yesterday	-10.3428
雑誌	-10.3428
ほんの	-10.3428
▁corner	-10.3428
後悔	-10.3428
▁duty	-10.3431
ソン	-10.3439
してきた	-10.344
出発する	-10.3452
第	-10.3464
使え	-10.3467
▁map	-10.347
▁feelings	-10.3472
飼	-10.3483
ユ	-10.3483
▁grandmother	-10.3483
マイク	-10.3483
▁film	-10.3483
▁feet	-10.3483
▁poet	-10.3483
▁stone	-10.3483
▁program	-10.3484
▁race	-10.3485
に向かって	-10.3485
H	-10.3488
ておく	-10.3492
入れた	-10.3495
わかって	-10.3496
になれ	-10.35
呼んで	-10.3502
年前に	-10.3502
▁ride	-10.3503
頼んだ	-10.3517
話しかけ	-10.3518
工	-10.3537
そろそろ	-10.3539
▁teeth	-10.3539
恥	-10.3539
▁ahead	-10.3539
▁blow	-10.3539
▁within	-10.3548
You	-10.3552
▁effort	-10.3566
あなたと	-10.3571
E	-10.3578
ize	-10.3589
際	-10.359
ハン	-10.3593
毎	-10.3593
牛	-10.3594
イタリア	-10.3595
洋	-10.3595
Q	-10.3595
▁behavior	-10.3595
▁wealth	-10.3595
すごい	-10.3595
演説	-10.3595
なくちゃ	-10.3599
過ごした	-10.3599
茶	-10.3608
してるよ	-10.361
認め	-10.3612
と思っていた	-10.3616
買わ	-10.3639
けば	-10.3643
高く	-10.3643
wood	-10.3647
値	-10.365
$	-10.3651
もちろん	-10.3651
噂	-10.3651
▁lady	-10.3652
ょ	-10.3654
そうと	-10.3657
▁exist	-10.3657
本を読んで	-10.3662
サー	-10.3665
死に	-10.3666
発見	-10.3672
逃	-10.3676
▁fit	-10.369
緒	-10.3696
▁laughed	-10.3699
青い	-10.3702
具	-10.3702
然	-10.3703
在	-10.3706
▁Osaka	-10.3707
▁position	-10.3707
ページ	-10.3707
氷	-10.3707
塗	-10.3707
丘	-10.3707
▁lawyer	-10.3707
▁demand	-10.3707
▁wonderful	-10.3714
キロ	-10.3721
▁birds	-10.3726
大いに	-10.3726
我々は	-10.3728
▁tend	-10.3735
来ました	-10.3739
▁singing	-10.3741
速く走	-10.3744
流れ	-10.3746
科学	-10.3748
▁彼女は私に	-10.3749
▁straight	-10.3764
▁bike	-10.3764
ギター	-10.3766
むしろ	-10.3766
rain	-10.3767
▁allow	-10.3768
▁useful	-10.3776
来ない	-10.3792
▁彼女には	-10.3809
返事を	-10.3816
活	-10.3816
の間に	-10.3818
掃除	-10.382
極	-10.3821
練習	-10.3822
▁トムはまだ	-10.3822
に関する	-10.3823
安全	-10.3823
その問題を	-10.3826
まして	-10.3827
すでに	-10.3827
私と	-10.3834
ビー	-10.3837
能力	-10.3841
▁fix	-10.3847
大好きです	-10.385
▁fan	-10.385
へ行って	-10.3876
及	-10.3879
▁field	-10.3879
▁poem	-10.3879
▁dishes	-10.3879
▁calm	-10.388
工場	-10.388
2、3	-10.388
▁Ta	-10.3888
似ている	-10.3889
▁covered	-10.3898
を使う	-10.3903
▁employ	-10.3906
を取って	-10.3908
黙って	-10.3923
のかしら	-10.3927
その本を	-10.3928
てもいい	-10.3936
オレンジ	-10.3936
▁Saturday	-10.3936
▁prize	-10.3936
チーズ	-10.3936
故障	-10.3937
ほんと	-10.3937
▁orange	-10.3937
万円	-10.3938
であろう	-10.3942
▁kindness	-10.3945
必要はない	-10.3952
絶対	-10.3966
▁whatever	-10.397
仲	-10.3976
▁farm	-10.3977
っけ	-10.3981
布	-10.3994
額	-10.3995
▁actually	-10.3995
▁improve	-10.3995
▁terms	-10.3995
▁critic	-10.3995
▁harm	-10.3995
才能	-10.3995
地図	-10.3997
バスで	-10.4004
いくらですか	-10.4006
外で	-10.4007
▁main	-10.401
台所	-10.401
深	-10.4015
女の子は	-10.4017
▁surprise	-10.4025
開いて	-10.403
初	-10.4042
かかってい	-10.4042
息を	-10.4046
易	-10.4053
)	-10.4053
端	-10.4053
偉大な	-10.4053
を作る	-10.4059
せない	-10.4068
やめた	-10.4078
交通	-10.4084
どういう	-10.4086
落とし	-10.4087
▁laughing	-10.4089
は誰ですか	-10.4091
猫が	-10.4108
私は彼	-10.4109
出来ない	-10.4109
(	-10.4112
チケット	-10.4112
群	-10.4112
▁instead	-10.4112
▁recover	-10.4112
クラブ	-10.4112
弁	-10.4112
▁avoid	-10.4112
giving	-10.4112
政治家	-10.4114
体重	-10.412
スター	-10.4126
行こう	-10.4137
あそこ	-10.4146
父が	-10.4147
▁gu	-10.4158
健康に	-10.4158
▁slow	-10.4163
『	-10.4171
』	-10.4171
▁bound	-10.4171
マイル	-10.4171
胸	-10.4171
▁equal	-10.4171
▁shot	-10.4171
▁wide	-10.4171
決定	-10.4173
きれいな	-10.4176
▁lesson	-10.4177
上がり	-10.4185
振	-10.4186
において	-10.4186
の名前は	-10.4201
しちゃった	-10.4206
CD	-10.4214
▁ended	-10.422
バラ	-10.4223
政府	-10.4224
焼	-10.4227
西	-10.4231
腰	-10.4231
▁roof	-10.4231
▁service	-10.4231
▁burst	-10.4231
▁Wait	-10.4231
訪問	-10.4231
▁rude	-10.4231
▁education	-10.4231
回復	-10.4232
トラ	-10.4236
▁彼女は彼の	-10.4236
▁Du	-10.4246
好きではない	-10.4247
にならない	-10.4268
洗い	-10.4274
もらいたい	-10.4284
昇	-10.4288
界	-10.429
▁author	-10.429
滅	-10.429
▁provide	-10.429
▁silent	-10.429
▁flight	-10.4297
に入る	-10.4297
ようです	-10.4306
じゃん	-10.4313
差し	-10.4319
差	-10.4322
作家	-10.4325
若	-10.4325
▁healthy	-10.4334
▁fly	-10.4335
▁sudden	-10.434
帰る	-10.4349
察	-10.4351
申	-10.4351
ゲ	-10.4351
▁Fuji	-10.4351
▁anxious	-10.4351
▁enemy	-10.4351
▁middle	-10.4351
▁terrible	-10.4351
▁self	-10.4351
怒り	-10.4352
の下に	-10.4363
国民	-10.4371
気がする	-10.4374
60	-10.4392
現れ	-10.4411
航	-10.4411
▁engine	-10.4411
ネクタイ	-10.4411
▁population	-10.4411
到着した	-10.4411
乱	-10.4411
希望	-10.4411
▁hung	-10.4411
りんご	-10.4412
夏休み	-10.4413
良かった	-10.4417
▁Mos	-10.4418
間違っている	-10.4422
もらう	-10.4423
しろ	-10.4434
氏は	-10.4436
しません	-10.4436
絶対に	-10.4443
▁decide	-10.4444
自由に	-10.445
▁direct	-10.4453
早い	-10.4458
どうも	-10.446
切った	-10.4465
損	-10.4472
▁彼女は自分の	-10.4472
▁require	-10.4472
召	-10.4472
宝	-10.4472
素敵な	-10.4472
邪魔	-10.4472
上司	-10.4473
フェ	-10.4475
事業	-10.448
lace	-10.4487
人々が	-10.4491
東	-10.4501
はずだ	-10.451
だけど	-10.451
触	-10.4515
▁彼女は私の	-10.4519
息	-10.453
劇	-10.4532
舞	-10.4533
▁happiness	-10.4534
▁crime	-10.4534
▁value	-10.4534
▁Last	-10.4534
延期	-10.4534
勇気	-10.4536
泣いて	-10.4543
店で	-10.4548
黙	-10.4548
走って	-10.4551
本を読む	-10.4558
▁However	-10.4562
年前	-10.458
よろしい	-10.4595
握	-10.4595
護	-10.4595
▁pleasure	-10.4595
▁satisfied	-10.4595
▁system	-10.4595
セーター	-10.4595
▁search	-10.4595
免	-10.4595
具合	-10.4597
なければいけない	-10.4597
やつ	-10.4598
案内	-10.4598
▁Mike	-10.4598
それら	-10.4604
パイ	-10.4617
世話	-10.4625
13	-10.4632
land	-10.4634
▁sooner	-10.4634
僕たち	-10.4634
別れ	-10.4635
予定です	-10.4635
豊	-10.4657
事務所	-10.4657
袋	-10.4657
▁beyond	-10.4657
▁detail	-10.4657
▁museum	-10.4657
▁pocket	-10.4657
▁prison	-10.4657
▁themselves	-10.4657
少なくとも	-10.4657
浴	-10.4657
▁clever	-10.4657
変わった	-10.4658
禁止	-10.4658
▁push	-10.4658
まない	-10.4658
▁wallet	-10.466
aking	-10.4662
わかり	-10.4671
▁spoken	-10.4687
日本で	-10.4689
▁skin	-10.4694
▁complete	-10.4709
芝	-10.472
尋ねた	-10.472
館	-10.472
服を着	-10.472
野菜	-10.472
ピザ	-10.4721
だけでなく	-10.4723
雨が降る	-10.4724
あたり	-10.4726
あれば	-10.4733
▁彼女は彼に	-10.4735
飲み物	-10.4736
事件	-10.4738
本を読み	-10.4762
もらって	-10.4776
騒	-10.4777
雇	-10.4782
▁remind	-10.4783
ミルク	-10.4783
奪	-10.4783
▁extreme	-10.4783
▁wedding	-10.4783
霊	-10.4783
完全に	-10.4783
可能性	-10.4784
患者	-10.4788
ればいい	-10.4789
飲ま	-10.4796
働いている	-10.4797
途中で	-10.4805
遅れる	-10.4823
もなく	-10.4829
いいですか	-10.483
つもりなの	-10.4831
りません	-10.4831
生きている	-10.4831
考えている	-10.4835
ひと	-10.4844
rush	-10.4844
となった	-10.4845
▁advantage	-10.4846
▁murder	-10.4846
▁request	-10.4846
▁simple	-10.4846
バッグ	-10.4846
丸	-10.4846
鼻	-10.4846
よろしく	-10.4846
天候	-10.4846
調査	-10.4846
屋根	-10.4847
を作った	-10.485
奥さん	-10.4852
▁serve	-10.4852
知り	-10.4855
フランス語で	-10.4862
真っ	-10.4869
したいのですが	-10.4877
子供達	-10.4886
ありがとうございます	-10.4894
々と	-10.4894
杯	-10.4904
注	-10.4907
▁list	-10.4909
狂	-10.491
▁Leave	-10.491
▁accord	-10.491
▁choice	-10.491
▁taught	-10.491
富士山	-10.491
跡	-10.491
銃	-10.491
波	-10.491
▁attack	-10.491
print	-10.491
苦労	-10.491
▁dropped	-10.4911
間に合う	-10.4911
▁apartment	-10.4911
▁Someone	-10.4911
行為	-10.4912
用意	-10.4919
▁concerned	-10.4928
したくない	-10.493
来月	-10.4934
されました	-10.4937
ることができる	-10.4948
boo	-10.4954
お互いに	-10.4956
整	-10.4974
課	-10.4974
▁crazy	-10.4974
展	-10.4974
恵	-10.4974
申し出	-10.4974
▁stamp	-10.4974
財産	-10.4974
▁native	-10.4975
与え	-10.4976
ジェ	-10.4977
▁sweater	-10.498
カード	-10.4983
▁reply	-10.4983
だと思った	-10.4989
事故で	-10.4995
ねえ	-10.5
ませ	-10.5003
をとって	-10.5013
に行こう	-10.5017
死んで	-10.5037
算	-10.5038
ますます	-10.5038
節	-10.5038
級	-10.5038
詞	-10.5038
悩	-10.5038
▁cheese	-10.5038
▁excuse	-10.5038
▁football	-10.5038
麗	-10.5038
知っています	-10.5039
▁relie	-10.5039
助言	-10.504
こういう	-10.5041
▁Un	-10.5047
それについて	-10.5055
ロン	-10.5063
ものである	-10.5066
少しも	-10.5074
▁allowed	-10.5075
交通事故	-10.5076
▁lu	-10.5081
になっていた	-10.5085
なくなる	-10.5093
に会いに	-10.5097
遊	-10.5099
なんですか	-10.51
まれた	-10.5101
厳	-10.5101
為	-10.5102
穴	-10.5103
▁graduate	-10.5103
▁nervous	-10.5103
▁nobody	-10.5103
早起き	-10.5104
▁headache	-10.5105
▁Read	-10.5106
機嫌	-10.5109
毎年	-10.5109
出会った	-10.5114
言われた	-10.5116
▁gl	-10.5135
を見せ	-10.5141
だよね	-10.5142
返事	-10.5143
んじゃ	-10.515
つかない	-10.5157
▁sleepy	-10.5157
駅で	-10.5158
▁quick	-10.5158
分かり	-10.5165
吹	-10.5168
険	-10.5168
祭	-10.5169
陰	-10.5169
棚	-10.5169
肩	-10.5169
▁neither	-10.5169
▁itself	-10.5169
▁example	-10.5169
▁ears	-10.5169
かつて	-10.5169
結構	-10.517
教室	-10.517
なきゃいけない	-10.517
貧しい	-10.5172
近所	-10.5172
▁さあ	-10.5174
理論	-10.5174
不注意	-10.5176
忘れない	-10.5177
を読む	-10.518
的だ	-10.5203
消え	-10.5209
ニー	-10.522
▁asking	-10.5221
rr	-10.5231
党	-10.5234
六	-10.5235
▁chicken	-10.5235
圧	-10.5235
▁economic	-10.5235
▁temperature	-10.5235
▁scared	-10.5235
▁その少年は	-10.5236
▁彼らはその	-10.524
カン	-10.5241
知りません	-10.5261
タイプ	-10.5263
▁translate	-10.5273
部屋に入	-10.5291
▁noon	-10.5292
言ってる	-10.5293
上がって	-10.5293
風呂	-10.53
▁vegetable	-10.5301
▁conversation	-10.5301
▁pizza	-10.5301
▁welcome	-10.5301
就	-10.5301
▁spread	-10.5301
底	-10.5301
何度も	-10.5301
▁hearing	-10.5305
飽き	-10.5306
が必要です	-10.5313
pect	-10.5313
少ない	-10.5316
外国人	-10.5333
待つ	-10.5339
買	-10.5342
使う	-10.5355
来なかった	-10.5356
day	-10.5361
生きて	-10.5364
換	-10.5367
皮	-10.5367
筋	-10.5367
▁Spanish	-10.5367
▁anywhere	-10.5367
▁firm	-10.5367
▁sharp	-10.5367
▁pretend	-10.5367
とは限らない	-10.5367
大切な	-10.5368
駄目	-10.5368
今年	-10.5368
▁promised	-10.537
▁woke	-10.5371
中止	-10.5384
外国語	-10.5384
ひとつ	-10.5391
▁Fro	-10.5392
詩人	-10.5401
じゃなくて	-10.5402
もう少し	-10.5405
速い	-10.5413
育て	-10.5416
暮	-10.5419
てくる	-10.5424
走り	-10.543
強く	-10.5431
働	-10.5431
▁April	-10.5435
▁control	-10.5435
劣	-10.5435
▁risk	-10.5435
▁ordered	-10.5435
比べ	-10.5435
怪我	-10.5437
収入	-10.5439
最後に	-10.5442
▁writer	-10.5446
替え	-10.5454
向け	-10.5455
をとった	-10.5461
▁sum	-10.5465
てはいけない	-10.5467
バカ	-10.5467
nna	-10.5477
▁caused	-10.5479
があれば	-10.5485
終えた	-10.5493
農	-10.5501
州	-10.5502
刺	-10.5502
災	-10.5502
▁truck	-10.5502
▁tongue	-10.5502
地域	-10.5503
▁Ba	-10.5503
▁beginning	-10.5504
そうだった	-10.5504
▁theory	-10.5506
早く起き	-10.5516
▁anger	-10.5516
果物	-10.5521
知ってるよ	-10.5523
何時	-10.5555
ポー	-10.5559
景	-10.5568
▁Of	-10.5568
婚	-10.5569
砂	-10.557
幾	-10.557
派	-10.557
▁affair	-10.557
▁energy	-10.557
▁funny	-10.557
卒業	-10.557
がっかり	-10.557
代わりに	-10.557
述べ	-10.557
びっくり	-10.5571
ゴルフ	-10.5572
自殺	-10.5573
いただけ	-10.5573
喜び	-10.5573
使った	-10.5575
▁Once	-10.5576
が好きなんだ	-10.5577
暖	-10.5583
提出	-10.5596
今日の午後	-10.5598
といった	-10.5599
激	-10.5602
みよう	-10.5611
家にいた	-10.5634
政	-10.5638
賃	-10.5639
▁China	-10.5639
▁appointment	-10.5639
▁audience	-10.5639
▁seldom	-10.5639
▁somebody	-10.5639
うんざり	-10.5639
▁nature	-10.5639
終わる	-10.5639
▁bla	-10.564
楽しんで	-10.564
デート	-10.5641
▁pond	-10.5641
騒音	-10.5645
一度も	-10.5649
亡くなった	-10.565
▁cancel	-10.5651
のだろうか	-10.5653
じっと	-10.5654
▁Germany	-10.5658
取れ	-10.5668
らぬ	-10.5673
ちょ	-10.5686
80	-10.5706
否	-10.5707
陸	-10.5707
▁birth	-10.5707
南	-10.5708
履	-10.5708
当たり	-10.5709
もらえませんか	-10.5709
表現	-10.571
cal	-10.5712
▁あの子	-10.5713
おいで	-10.5714
思います	-10.5717
みたいな	-10.5718
があったら	-10.5718
任せ	-10.5724
なくても	-10.5732
台風	-10.5738
われわれ	-10.5766
お店	-10.5774
可	-10.5776
衆	-10.5777
承	-10.5777
鉄	-10.5777
▁picnic	-10.5777
▁temper	-10.5777
にもかかわらず	-10.5777
環境	-10.5777
▁task	-10.5777
隊	-10.5777
必ずしも	-10.5777
を学ぶ	-10.5783
成長	-10.5785
▁lucky	-10.5788
先月	-10.579
▁disappointed	-10.5792
▁日本では	-10.5796
助けてくれ	-10.5801
▁Gra	-10.5805
本当のこと	-10.5819
round	-10.5824
くれてありがとう	-10.5824
▁missing	-10.5831
密	-10.5847
クッキー	-10.5847
祝	-10.5847
土曜日	-10.5847
盛	-10.5847
▁photo	-10.5847
ボタン	-10.5847
余裕	-10.5847
▁message	-10.5847
▁mood	-10.5847
知り合い	-10.5847
容易	-10.5848
▁nation	-10.5848
How	-10.5848
▁Make	-10.585
主張	-10.5851
全体	-10.5856
ことになる	-10.586
▁filled	-10.5867
▁Day	-10.5868
立っている	-10.5874
知っていた	-10.5877
16	-10.5878
んでしょ	-10.5882
出かけた	-10.5898
変な	-10.5899
ドアを開け	-10.5903
▁knock	-10.5917
▁drank	-10.5917
詰	-10.5917
▁salary	-10.5917
抗	-10.5917
紅茶	-10.5918
▁share	-10.5918
▁speaker	-10.592
答	-10.5922
となる	-10.5925
hrew	-10.5933
この本を	-10.5935
トムのこと	-10.595
すればいい	-10.5956
若く	-10.596
▁gun	-10.5966
▁luck	-10.5979
腐	-10.5988
郵便局	-10.5988
▁chocolate	-10.5988
▁credit	-10.5988
▁Tony	-10.5988
▁speed	-10.5989
▁income	-10.5989
▁appearance	-10.599
婦人	-10.5991
欠点	-10.5992
英語を話す	-10.5992
トニー	-10.5992
▁Shi	-10.5992
関心	-10.5993
▁gold	-10.5993
▁fever	-10.6004
ケン	-10.6013
▁kissed	-10.6018
何て	-10.6022
座った	-10.6036
25	-10.604
込み	-10.6043
できます	-10.6049
帰った	-10.6056
園	-10.6058
ピクニック	-10.606
宇宙	-10.606
源	-10.606
▁thief	-10.606
▁damage	-10.606
▁classroom	-10.6062
文化	-10.6063
住んでいる	-10.6064
▁size	-10.6064
▁gate	-10.6071
窓を開け	-10.6072
まあ	-10.6082
速く	-10.6084
▁golf	-10.6085
gged	-10.6086
▁bother	-10.6086
▁War	-10.6098
▁teaching	-10.6099
nut	-10.61
を訪ね	-10.6106
▁lately	-10.6106
をつけて	-10.6106
電話をかけ	-10.6107
甘	-10.6111
ることができなかった	-10.6121
▁rainy	-10.6126
争	-10.6131
参加	-10.6131
油	-10.6131
雑	-10.6132
▁remark	-10.6132
▁schedule	-10.6132
模	-10.6132
納	-10.6132
玉	-10.6132
勤勉	-10.6132
しっかり	-10.6132
退屈	-10.6132
買う	-10.6132
想像	-10.6132
ソファ	-10.6133
書類	-10.6134
土地	-10.6135
社長	-10.6138
▁トムさんは	-10.6139
▁私の父は	-10.6139
価値がある	-10.614
ミス	-10.6141
▁slight	-10.6143
してるんだ	-10.615
いらっしゃい	-10.615
▁button	-10.6151
留学	-10.6154
遅	-10.6159
信じる	-10.6169
▁rep	-10.6183
ジェーン	-10.6187
一体	-10.6188
▁washing	-10.619
帰ってきた	-10.6191
▁difficulty	-10.6202
策	-10.6204
▁retire	-10.6204
▁degree	-10.6204
▁marriage	-10.6204
ブラウン	-10.6204
怠	-10.6204
己	-10.6204
トラック	-10.6206
国際	-10.6208
▁animal	-10.6209
わからなかった	-10.6209
▁mention	-10.6213
亡	-10.6213
水泳	-10.6217
恐れ	-10.6221
去った	-10.6221
個人	-10.6228
▁taller	-10.6237
取って	-10.624
を認め	-10.6245
泊ま	-10.6245
▁beside	-10.6256
▁skiing	-10.6256
院	-10.6269
決めた	-10.6274
ことになっている	-10.6275
英国	-10.6276
凍	-10.6277
▁recommend	-10.6277
歓	-10.6277
▁Brown	-10.6277
▁explanation	-10.6277
▁lift	-10.6277
手に入れた	-10.6278
悲	-10.6279
我慢できない	-10.6279
感情	-10.628
言わなかった	-10.628
同様	-10.6282
発明	-10.6284
▁total	-10.6291
価格	-10.6292
スミス	-10.6296
大人	-10.6306
の前で	-10.6306
F	-10.6313
▁その子は	-10.6314
見かけ	-10.6338
やってきた	-10.6343
うれし	-10.6349
ことができます	-10.635
干	-10.6351
属	-10.6351
▁familiar	-10.6351
▁progress	-10.6351
札	-10.6351
▁grass	-10.6351
▁space	-10.6351
選挙	-10.6351
以来	-10.6352
を投げ	-10.6352
子供の頃	-10.6353
暗くな	-10.6357
▁dry	-10.6358
▁introduce	-10.6361
向き	-10.6373
▁flying	-10.6379
持ってきて	-10.6393
留	-10.6402
▁build	-10.6402
くなってきた	-10.6405
夕	-10.6416
▁cloth	-10.642
精	-10.6424
▁October	-10.6425
▁committee	-10.6425
▁scholar	-10.6425
▁third	-10.6425
委員会	-10.6425
永	-10.6425
美味しい	-10.6425
芸術	-10.6425
▁content	-10.6425
▁aware	-10.6425
使われ	-10.6427
を失った	-10.6429
ほぼ	-10.6431
▁彼らが	-10.6431
いくつ	-10.6432
耐え	-10.6432
たいのですが	-10.6458
しょ	-10.6469
▁Mom	-10.6472
扱い	-10.6475
十分な	-10.6484
宿	-10.6499
柄	-10.6499
▁excited	-10.6499
▁electric	-10.6499
レポート	-10.6499
▁robbe	-10.6499
▁sail	-10.65
▁stick	-10.65
を思い出す	-10.6501
ノート	-10.6502
まさに	-10.6502
人形	-10.6504
植物	-10.6507
▁press	-10.651
を与えた	-10.6517
世界中	-10.6522
▁manager	-10.6522
なかったので	-10.6523
便り	-10.6527
に行きました	-10.6529
phon	-10.6532
▁kiss	-10.6543
されています	-10.6573
▁choose	-10.6575
▁science	-10.6575
不思議	-10.6575
幼	-10.6575
アパート	-10.6575
狭	-10.6575
記憶	-10.6575
と同じくらい	-10.6577
活動	-10.6577
テン	-10.6579
電車に乗	-10.6581
▁ジムは	-10.6587
これ以上	-10.6592
残念な	-10.6603
書かれ	-10.6603
▁coin	-10.6606
お手伝い	-10.6609
▁noticed	-10.6618
知りたい	-10.6625
亡くな	-10.6628
▁医者は	-10.664
説	-10.6646
流行	-10.6648
義	-10.6649
緑	-10.665
▁affect	-10.665
▁approach	-10.665
▁exchange	-10.665
▁studies	-10.665
城	-10.665
症	-10.665
最後の	-10.665
▁その男は	-10.6654
▁theater	-10.6654
▁pale	-10.6655
▁settle	-10.6657
立っていた	-10.6661
人もいる	-10.6662
重い	-10.667
▁ビルは	-10.6675
明日の朝	-10.6684
自慢	-10.6685
払い	-10.669
手伝い	-10.6693
▁pan	-10.6703
しかない	-10.6709
bye	-10.671
こない	-10.6712
その知らせ	-10.6722
お話し	-10.6723
由	-10.6724
▁supermarket	-10.6727
▁wild	-10.6727
おっしゃ	-10.6727
健	-10.6727
申し訳ありません	-10.6727
教授	-10.6727
経営	-10.6727
▁gather	-10.6727
▁boil	-10.6727
泳いで	-10.6727
都合	-10.6727
過去	-10.6727
恐怖	-10.6728
権利	-10.6728
性格	-10.6729
何回	-10.6735
▁advised	-10.6737
をとる	-10.6738
za	-10.6739
▁ジェーンは	-10.6745
もらい	-10.6749
▁Ni	-10.6758
unch	-10.6764
ことがあります	-10.6775
ようになった	-10.6776
美人	-10.6777
▁workers	-10.6786
殺人	-10.6791
超	-10.6797
He	-10.6799
危	-10.6802
14	-10.6803
過ごし	-10.6803
統	-10.6804
▁Friday	-10.6804
▁Tanaka	-10.6804
▁particular	-10.6804
▁typhoon	-10.6804
ホーム	-10.6804
▁dirty	-10.6804
咲	-10.6804
▁slept	-10.6804
▁method	-10.6804
▁normal	-10.6804
あげよう	-10.6805
変化	-10.6806
寒	-10.6806
文字	-10.6806
▁hall	-10.6807
▁Maybe	-10.6809
痛い	-10.6813
▁aim	-10.6813
置いた	-10.6822
先日	-10.6836
立った	-10.6837
R	-10.684
に乗る	-10.6844
▁crowded	-10.6849
ならば	-10.6862
閉め	-10.6867
官	-10.6881
メートル	-10.6881
板	-10.6881
革	-10.6881
▁entire	-10.6881
癖	-10.6881
▁Though	-10.6881
▁argument	-10.6881
▁economy	-10.6881
▁joy	-10.6881
▁license	-10.6881
▁supper	-10.6881
興奮	-10.6881
▁stock	-10.6881
▁factory	-10.6881
ほうがよい	-10.6881
▁fond	-10.6881
義務	-10.6881
▁neck	-10.6882
製品	-10.6883
がなかったら	-10.6884
▁Whil	-10.6885
▁Kate	-10.6889
ずつ	-10.6891
買いたい	-10.6893
今週	-10.6895
▁bare	-10.6901
起きて	-10.6906
上手く	-10.6912
押	-10.6919
置き	-10.6922
んでしょう	-10.6923
頭痛	-10.6925
くれました	-10.6926
▁bra	-10.6927
途	-10.6927
電話する	-10.6949
魔	-10.6959
▁Hurry	-10.6959
▁Canada	-10.6959
▁compet	-10.6959
禁煙	-10.696
ウィ	-10.696
欠席	-10.6961
▁pack	-10.6965
おもしろい	-10.6971
さぁ	-10.6973
の世話をし	-10.6996
付いて	-10.6996
と思ってた	-10.7005
▁人間は	-10.7015
燃え	-10.7019
▁leader	-10.7021
商	-10.7036
管	-10.7038
▁absorb	-10.7038
羽	-10.7038
▁fashion	-10.7038
▁plenty	-10.7038
▁understood	-10.7038
▁nurse	-10.7038
やさしい	-10.7038
▁trick	-10.7038
▁painted	-10.7039
事態	-10.704
▁disease	-10.704
▁foolish	-10.704
▁laid	-10.7041
▁Car	-10.7042
話せない	-10.7042
▁issue	-10.7043
冷たい	-10.7044
にくい	-10.7045
家庭	-10.705
来ます	-10.7057
にはたくさんの	-10.7064
第一	-10.7064
待った	-10.7067
泊	-10.7073
いいですよ	-10.7079
▁fixed	-10.7082
The	-10.7087
を取る	-10.7092
レイ	-10.7109
植	-10.7109
毒	-10.7117
かもしれません	-10.7117
▁airplane	-10.7117
▁courage	-10.7117
▁email	-10.7117
▁deliver	-10.7117
ポケット	-10.7117
▁cried	-10.7118
気候	-10.7118
離婚	-10.7118
に夢中	-10.712
きのう	-10.7121
becoming	-10.7122
理解できない	-10.7123
カップ	-10.7125
半分	-10.7125
けれども	-10.7134
不可能だ	-10.7139
分かりません	-10.714
プラ	-10.7143
物語	-10.7148
を得た	-10.7152
聞こえる	-10.7177
歩け	-10.7185
れてしまった	-10.7187
酸	-10.7197
▁shock	-10.7197
写真を撮	-10.7197
役に立つ	-10.7197
▁limit	-10.7197
▁pair	-10.7197
▁model	-10.7197
▁consist	-10.7198
▁Chris	-10.7198
▁万一	-10.7198
商売	-10.7198
一致	-10.72
はずがない	-10.7203
▁われわれは	-10.721
悲しい	-10.7221
悲し	-10.7247
スペイン語	-10.7247
笑った	-10.7256
くださ	-10.7258
けれど	-10.7262
飛んで	-10.7266
広い	-10.7272
効	-10.7277
ママ	-10.7277
講	-10.7278
伸	-10.7278
キング	-10.7278
▁achieve	-10.7278
▁ashamed	-10.7278
▁fortune	-10.7278
▁suitcase	-10.7278
依	-10.7278
滑	-10.7278
磨	-10.7278
▁refer	-10.7278
▁Show	-10.7278
がうまい	-10.7279
▁comfortable	-10.7279
▁toilet	-10.728
skirt	-10.7281
戻る	-10.7281
が見えた	-10.7283
▁aunt	-10.7283
市場	-10.7283
食べない	-10.7285
自身	-10.7285
▁trade	-10.7293
cial	-10.7304
▁Only	-10.7307
黒い	-10.7325
▁raise	-10.7332
いっしょに	-10.7336
他	-10.7345
▁accustom	-10.7359
衣	-10.7359
▁rabbit	-10.7359
▁relax	-10.7359
グラス	-10.7359
▁article	-10.7359
▁praise	-10.7359
ケイト	-10.7359
ヴ	-10.7359
贈り物	-10.7359
ization	-10.7359
相談	-10.736
兵士	-10.736
▁debt	-10.736
主義	-10.736
あいつ	-10.7361
インド	-10.7362
借金	-10.7367
祖母	-10.7371
訪れ	-10.7376
▁seriously	-10.7381
70	-10.74
激しく	-10.7401
越え	-10.7404
遅い	-10.7417
hand	-10.7438
言いました	-10.7439
奇	-10.7441
栄	-10.7441
▁Although	-10.7441
▁current	-10.7441
▁lecture	-10.7441
▁recognize	-10.7441
▁spirit	-10.7441
▁innocent	-10.7441
スーパー	-10.7441
▁talent	-10.7441
▁Speak	-10.7441
セント	-10.7441
吹き	-10.7442
付き合って	-10.7442
愚か	-10.7449
やってる	-10.7456
▁prevented	-10.7462
座っていた	-10.7467
▁raised	-10.7469
眠り	-10.7488
▁faster	-10.7497
焼き	-10.7515
わずか	-10.7516
かわい	-10.7519
▁Russia	-10.7524
沢	-10.7524
▁According	-10.7524
▁Canadian	-10.7524
▁similar	-10.7524
スーツケース	-10.7524
ヨ	-10.7524
襲	-10.7524
▁steal	-10.7524
▁imagine	-10.7524
技術	-10.7524
▁feed	-10.7524
▁cancer	-10.7524
許可	-10.7525
▁childhood	-10.7525
を感じた	-10.7525
犯罪	-10.7525
最終	-10.7526
乗客	-10.7527
▁今年の	-10.7529
ji	-10.7532
▁refused	-10.7537
▁brave	-10.7542
甘い	-10.7548
科学者	-10.7552
仕事を終え	-10.757
を入れて	-10.7578
無事	-10.7588
らなければならない	-10.759
物価	-10.7593
初め	-10.7601
族	-10.7604
帯	-10.7607
▁2:30	-10.7607
▁announce	-10.7607
▁divorce	-10.7607
▁document	-10.7607
▁hobby	-10.7607
▁stories	-10.7607
振る舞	-10.7607
林	-10.7607
担	-10.7607
▁memory	-10.7607
結婚式	-10.7609
分からなかった	-10.761
この町	-10.761
ぜひ	-10.7611
使用	-10.7612
バター	-10.7613
ja	-10.7614
▁castle	-10.7614
込む	-10.7615
▁今年は	-10.7619
▁ケンは	-10.762
▁bow	-10.7624
はどうですか	-10.7633
辞め	-10.7636
座り	-10.7641
そのような	-10.7647
お酒	-10.7648
私にとって	-10.7656
いつまで	-10.7664
てしまいました	-10.7665
彼から	-10.7669
鏡	-10.7691
祈	-10.7691
アドバイス	-10.7691
唯一の	-10.7691
▁opportunity	-10.7691
▁persuade	-10.7691
渋	-10.7691
だんだん	-10.7692
を持つ	-10.7693
ごめんなさい	-10.7701
楽しく	-10.7709
悪いこと	-10.7721
一番好きな	-10.7742
las	-10.7747
300	-10.7759
待っている	-10.776
文句	-10.7766
ニング	-10.7776
それぞれ	-10.7776
材	-10.7776
▁entrance	-10.7776
▁fifty	-10.7776
七	-10.7776
久しぶり	-10.7776
了	-10.7776
ダンス	-10.7776
▁shy	-10.7776
▁bathroom	-10.7777
精神	-10.7777
非難	-10.7778
立場	-10.7785
▁tight	-10.7787
▁cab	-10.7797
▁bite	-10.7798
母さん	-10.7804
が大好きだ	-10.7805
▁トムなら	-10.7809
▁translated	-10.7812
当時	-10.7815
面倒	-10.7837
眠れ	-10.7844
彼氏	-10.785
G	-10.7854
gging	-10.7858
測	-10.7861
井	-10.7861
株	-10.7861
踏	-10.7861
▁disappear	-10.7861
Yeah	-10.7861
▁Life	-10.7861
▁curtain	-10.7861
▁passengers	-10.7861
▁protect	-10.7861
▁quarrel	-10.7861
ロシア	-10.7861
たぶん	-10.7862
階段	-10.7862
幸運	-10.7862
都会	-10.7863
ペット	-10.7866
ジュ	-10.7867
が好きなの	-10.7869
会いたい	-10.7869
勝ち	-10.787
▁sake	-10.7872
明け	-10.7875
行けば	-10.7877
▁certainly	-10.7885
上着	-10.7889
▁Call	-10.789
訪ねて	-10.7895
▁フランス語は	-10.79
独り	-10.7901
ガン	-10.7907
家を出	-10.7908
▁ye	-10.7919
会話	-10.7937
下手	-10.7942
復	-10.7945
障	-10.7947
▁arrange	-10.7948
▁excellent	-10.7948
▁Something	-10.7948
おもちゃ	-10.7948
世紀	-10.7948
▁cheer	-10.7948
変更	-10.7948
番組	-10.7949
作品	-10.7957
ローマ	-10.7965
望み	-10.7967
ゃ	-10.7975
勝った	-10.8013
自分の部屋	-10.8019
照	-10.8035
瞬	-10.8035
喋	-10.8035
粉	-10.8035
▁compare	-10.8035
▁convenient	-10.8035
▁experiment	-10.8035
▁pleasant	-10.8035
▁politician	-10.8035
▁society	-10.8035
▁various	-10.8035
雨が降った	-10.8035
▁organ	-10.8035
夕飯	-10.8035
支配	-10.8036
ボート	-10.8038
の近くに	-10.804
▁bake	-10.8048
▁design	-10.8068
これまで	-10.8093
持っていない	-10.8094
お名前	-10.8109
tric	-10.8113
爆	-10.812
修	-10.8121
チャンス	-10.8122
遺	-10.8122
▁century	-10.8122
▁guilty	-10.8122
▁stuck	-10.8122
ちょうだい	-10.8122
創	-10.8122
載	-10.8122
▁thick	-10.8123
商品	-10.8123
▁twin	-10.8124
▁irr	-10.8124
▁Italy	-10.8125
途中	-10.8128
優しい	-10.813
走った	-10.8132
▁ボブは	-10.8134
貸してくれ	-10.8136
解け	-10.8138
ピン	-10.8138
かかりますか	-10.8139
▁owe	-10.8164
隠れ	-10.8182
見えない	-10.8186
をとり	-10.8195
▁Ri	-10.8196
幸	-10.8205
像	-10.821
▁admit	-10.8211
目が覚め	-10.8211
採	-10.8211
厚	-10.8211
妙	-10.8211
熟	-10.8211
▁expense	-10.8211
▁ghost	-10.8211
▁grade	-10.8211
催	-10.8211
質問に答え	-10.8211
明かり	-10.8211
▁pulled	-10.8211
光景	-10.8212
否定	-10.8212
▁absolutely	-10.8214
▁forced	-10.8215
行きたくない	-10.8215
家具	-10.8216
▁chose	-10.8217
▁dad	-10.822
▁cash	-10.8226
▁fallen	-10.8229
文学	-10.824
僕ら	-10.8244
▁handle	-10.8249
▁pet	-10.8254
▁Hav	-10.8254
住んでる	-10.8257
気をつけて	-10.8257
提	-10.8265
不幸	-10.8282
合格	-10.8285
時に起き	-10.8294
ておきなさい	-10.8295
延	-10.8299
評	-10.83
児	-10.83
博物館	-10.83
パスポート	-10.83
覧	-10.83
▁desire	-10.83
▁gentleman	-10.8301
▁camp	-10.8304
▁passport	-10.8305
▁India	-10.8306
臭い	-10.8307
right	-10.8337
に乗って	-10.8349
起	-10.8356
ございます	-10.838
来てくれ	-10.8381
局	-10.839
寂	-10.839
羊	-10.839
筆	-10.839
薄	-10.839
▁sandwich	-10.839
喧	-10.839
▁contract	-10.839
▁convince	-10.839
▁culture	-10.839
あきらめ	-10.839
喉	-10.839
旧	-10.839
訴	-10.839
霧	-10.839
▁further	-10.839
▁wound	-10.839
にちがいない	-10.839
刑	-10.839
楽しんだ	-10.839
どおり	-10.839
▁shape	-10.839
変わり	-10.8393
▁diary	-10.8394
方がよい	-10.8406
と思っています	-10.844
ジョー	-10.8479
庫	-10.8481
▁Hokkaido	-10.8481
▁arrested	-10.8481
▁cigarette	-10.8481
▁granted	-10.8481
▁okay	-10.8481
▁rarely	-10.8481
射	-10.8481
▁forgive	-10.8481
▁importance	-10.8482
暖かい	-10.8482
▁huge	-10.8485
▁cell	-10.8488
不安	-10.8489
agin	-10.8492
K	-10.8494
教えてくれた	-10.8498
▁deeply	-10.8503
▁resign	-10.8507
スミスさん	-10.8516
支払い	-10.8532
されていた	-10.8533
▁final	-10.8562
呼ば	-10.8568
比	-10.8572
検	-10.8573
スカート	-10.8573
チェック	-10.8573
休憩	-10.8573
種類の	-10.8573
▁Should	-10.8573
▁dentist	-10.8573
釈	-10.8573
▁bottom	-10.8573
▁cheek	-10.8573
▁incident	-10.8573
▁period	-10.8573
典	-10.8573
北海道	-10.8573
▁Time	-10.8573
▁lazy	-10.8573
言おうと	-10.8573
▁conduct	-10.8574
▁behave	-10.8574
▁stage	-10.8574
ジム	-10.8576
▁brush	-10.8577
現実	-10.8579
90	-10.8582
作文	-10.8584
とうとう	-10.8592
すみません	-10.8597
続けて	-10.8599
▁direction	-10.8601
ありがとうございました	-10.8616
家に帰る	-10.862
その事件	-10.8643
尽	-10.8652
可能	-10.8663
ぺ	-10.8665
ナンシー	-10.8665
▁polite	-10.8665
スーツ	-10.8665
券	-10.8665
引っ越し	-10.8665
▁Nancy	-10.8665
▁absence	-10.8665
▁flood	-10.8665
▁jacket	-10.8665
▁produce	-10.8665
▁strength	-10.8665
▁stuff	-10.8665
請	-10.8665
▁contain	-10.8665
▁super	-10.8666
お会いでき	-10.8666
証拠	-10.8666
うわさ	-10.8666
▁bench	-10.8666
▁center	-10.8666
動物園	-10.8667
遊ぶ	-10.8669
終わって	-10.8669
▁Bring	-10.8669
小屋	-10.8671
んじゃないかな	-10.8672
焼け	-10.8681
▁猫は	-10.8692
父さん	-10.8693
暑	-10.8708
話します	-10.8731
tribute	-10.8736
才	-10.8758
貨	-10.8759
始めて	-10.8759
▁ceremony	-10.8759
▁climate	-10.8759
桜	-10.8759
▁obey	-10.8759
ときどき	-10.8759
ガラス	-10.8759
丁	-10.8759
撮	-10.8759
▁shout	-10.8759
▁snake	-10.8759
あげて	-10.8759
戻ってくる	-10.8761
厳しい	-10.8762
▁hole	-10.8763
食料	-10.8764
▁successful	-10.8765
とおり	-10.8766
入院し	-10.8769
▁子供たちは	-10.8792
好み	-10.8799
見えなかった	-10.8802
夢を見	-10.8802
支払	-10.8803
ステ	-10.8832
▁zoo	-10.8852
アイス	-10.8853
ずいぶん	-10.8853
▁scientist	-10.8853
▁translation	-10.8853
▁cherry	-10.8853
▁grand	-10.8853
寺	-10.8853
季節	-10.8853
競争	-10.8853
眼鏡	-10.8853
▁below	-10.8853
海岸	-10.8854
秘書	-10.8854
▁percent	-10.8855
▁crash	-10.8855
▁spare	-10.8855
▁soft	-10.8855
▁artist	-10.8857
帰ってくる	-10.8857
現代	-10.8857
▁Happ	-10.8859
▁roll	-10.8864
▁social	-10.8865
その計画に	-10.8871
▁actor	-10.8878
仲間	-10.8883
のではないか	-10.8892
▁英語は	-10.8925
されます	-10.8942
立派な	-10.8948
濃	-10.8948
▁accused	-10.8949
▁engaged	-10.8949
▁policy	-10.8949
ゼ	-10.8949
▁Water	-10.8949
▁copy	-10.8949
太郎	-10.8949
残念だ	-10.8949
人前で	-10.8949
おまえ	-10.8949
どれぐらい	-10.895
▁Rome	-10.8952
▁vote	-10.8953
ことに決めた	-10.8954
夕方	-10.8957
発表	-10.8957
▁plants	-10.8963
労働者	-10.897
傷つけ	-10.8982
言ってくれ	-10.8983
を出して	-10.901
互いに	-10.9026
▁Jo	-10.9029
▁cover	-10.9029
段	-10.904
▁inform	-10.9042
境	-10.9045
乾	-10.9045
▁honor	-10.9045
▁include	-10.9045
▁mathematics	-10.9045
一般的	-10.9045
冒	-10.9045
編	-10.9045
匂	-10.9045
▁June	-10.9045
erhaps	-10.9045
▁batter	-10.9045
▁local	-10.9045
▁extra	-10.9045
▁repeat	-10.9045
試験に合格し	-10.9045
▁department	-10.9046
予想	-10.9046
ッシュ	-10.9046
を訪れた	-10.9048
▁Ki	-10.9049
見込み	-10.905
ティー	-10.9062
しまいました	-10.9075
なくてもいい	-10.9083
寒くな	-10.91
毎週	-10.9101
価	-10.9137
九	-10.9142
銭	-10.9142
スピーチ	-10.9142
▁Year	-10.9142
▁dislike	-10.9142
▁quality	-10.9142
熱心に	-10.9142
▁occurred	-10.9142
おかしい	-10.9142
▁available	-10.9143
カーテン	-10.9143
テーブルの上に	-10.9144
寒かった	-10.9144
運命	-10.9147
地位	-10.9147
香り	-10.9152
その仕事に	-10.9166
ダイ	-10.9166
Why	-10.9182
に入れて	-10.9184
▁fog	-10.919
▁original	-10.9195
倒れ	-10.9229
もっと早く	-10.9231
▁Ne	-10.9234
港	-10.9238
影	-10.924
総	-10.924
X	-10.924
▁First	-10.924
▁Watch	-10.924
▁attempt	-10.924
▁elected	-10.924
▁furniture	-10.924
▁lonely	-10.924
▁refrigerator	-10.924
▁responsible	-10.924
終わらせ	-10.924
▁Open	-10.924
▁adult	-10.924
▁error	-10.924
もよろしいでしょうか	-10.924
▁awake	-10.924
礼儀	-10.924
利益	-10.924
信号	-10.924
に参加し	-10.9242
再び	-10.9244
なくてはいけない	-10.9244
駆け	-10.9248
▁brain	-10.9251
貴方	-10.926
見つめ	-10.9266
怒っている	-10.9304
▁egg	-10.9311
に乗った	-10.9323
故	-10.9329
挙	-10.9338
▁connect	-10.9339
▁environment	-10.9339
▁handsome	-10.9339
▁intelligent	-10.9339
▁professor	-10.9339
▁reservation	-10.9339
▁video	-10.9339
フットボール	-10.9339
潔	-10.9339
確信している	-10.9339
▁cousin	-10.9339
▁moving	-10.9339
▁guests	-10.9339
▁blew	-10.9339
盗まれた	-10.934
▁ruin	-10.934
▁cheat	-10.934
進歩	-10.9342
▁rope	-10.9342
手段	-10.9343
若い頃	-10.9344
一生懸命勉強し	-10.9345
感動	-10.9347
▁difficulties	-10.935
どころ	-10.9359
深く	-10.9364
触れ	-10.9369
見つけた	-10.9388
滞	-10.9438
印	-10.9438
▁temple	-10.9439
エンジン	-10.9439
▁White	-10.9439
▁composition	-10.9439
▁election	-10.9439
▁involved	-10.9439
▁obvious	-10.9439
▁research	-10.9439
充	-10.9439
可愛い	-10.9439
巻	-10.9439
気づいた	-10.9439
遣	-10.9439
▁Sometimes	-10.9439
▁charm	-10.9439
▁attitude	-10.9439
▁kick	-10.9439
何時間も	-10.944
部分	-10.944
石油	-10.944
ジョージ	-10.9441
そのことについて	-10.9441
▁secretary	-10.9442
手紙を書く	-10.9442
手術	-10.9443
▁hide	-10.9444
文法	-10.9445
▁bark	-10.9456
がありました	-10.9464
捕ま	-10.9467
彼に会った	-10.9476
apped	-10.9496
000	-10.9513
▁stole	-10.9522
ject	-10.9538
ホワイト	-10.954
ばっかり	-10.954
▁President	-10.954
▁Tomorrow	-10.954
▁narrow	-10.954
胃	-10.954
金曜日	-10.954
▁style	-10.954
おしゃべり	-10.954
▁average	-10.954
もよろしいですか	-10.954
危機	-10.9542
横断	-10.9543
コップ	-10.9548
生産	-10.9551
多くの人が	-10.9557
忘れずに	-10.9561
わかりません	-10.9567
以	-10.9573
どうしたの	-10.9582
これらの	-10.9598
▁receive	-10.9614
皆さん	-10.9633
被	-10.9641
乳	-10.9642
福	-10.9642
眼	-10.9642
憎	-10.9642
▁Before	-10.9642
▁bloom	-10.9642
▁easier	-10.9642
▁exhausted	-10.9642
▁regular	-10.9642
崩	-10.9642
▁drew	-10.9642
▁saving	-10.9642
お目にかか	-10.9642
評価	-10.9642
▁kilo	-10.9642
▁juice	-10.9642
その知らせを聞いて	-10.9643
自信	-10.9646
論文	-10.9648
実現	-10.9648
▁opera	-10.9651
やりたい	-10.9655
と呼ばれ	-10.9658
燃	-10.9666
で暮らして	-10.9683
▁ju	-10.9687
ようにしなさい	-10.969
▁spit	-10.9728
▁wit	-10.9744
罰	-10.9745
ライオン	-10.9745
仮	-10.9745
ダイエット	-10.9745
各	-10.9745
▁blossom	-10.9745
▁classmates	-10.9745
始まります	-10.9745
著	-10.9745
▁intention	-10.9745
華	-10.9745
雷	-10.9745
▁level	-10.9745
武	-10.9745
▁iron	-10.9745
灯	-10.9745
▁spell	-10.9745
▁admitted	-10.9745
▁bored	-10.9745
▁apply	-10.9746
▁towel	-10.9746
交換	-10.9746
公平	-10.9747
歯医者	-10.9749
何時ですか	-10.9753
▁woods	-10.9754
▁僕らは	-10.9756
人類	-10.9759
その結果	-10.9762
屋さん	-10.9775
責め	-10.9779
震	-10.9847
ぇ	-10.9849
占	-10.9849
ぴ	-10.9849
久	-10.9849
頑張って	-10.9849
▁World	-10.9849
▁pound	-10.9849
堂	-10.9849
既	-10.9849
▁worst	-10.9849
販売	-10.9849
▁spot	-10.985
記録	-10.985
まさか	-10.985
▁tail	-10.985
迷惑	-10.985
議長	-10.9855
無料	-10.9856
寒さ	-10.9859
▁lion	-10.9862
たくなかった	-10.9886
のをやめ	-10.9891
を捕まえ	-10.9898
出来事	-10.9912
組み	-10.9913
望んで	-10.9915
▁兄は	-10.993
飯	-10.9947
覆	-10.9954
conscious	-10.9954
▁Smoking	-10.9954
▁blind	-10.9954
▁hurried	-10.9954
▁rapid	-10.9954
▁ocean	-10.9954
一晩中	-10.9954
博	-10.9954
▁boring	-10.9955
企業	-10.9955
退職	-10.9956
が悪かった	-10.9956
爆発	-10.9957
▁Miss	-10.9962
▁national	-10.9963
▁pie	-10.9966
進んで	-10.997
助けを求め	-10.9985
を開けて	-11.0001
ボブ	-11.0056
供	-11.0057
映	-11.006
技	-11.006
針	-11.0061
至	-11.0061
▁occasion	-11.0061
おそらく	-11.0061
候補	-11.0061
▁George	-11.0061
▁addition	-11.0061
▁autumn	-11.0061
▁silence	-11.0061
ドアを閉め	-11.0061
▁threat	-11.0061
の人口は	-11.0061
演奏	-11.0061
愛してる	-11.0061
支持	-11.0062
足りない	-11.0063
景色	-11.0063
証明	-11.0063
優勝	-11.0064
▁Taro	-11.0068
悲しみ	-11.0068
知られている	-11.0068
▁nap	-11.0069
晴	-11.0069
サイン	-11.0071
歳の時	-11.0081
勧め	-11.0084
もうこれ以上	-11.0122
てはならない	-11.0159
術	-11.0164
▁differ	-11.0165
▁admire	-11.0167
禁	-11.0167
討	-11.0168
—	-11.0168
▁solution	-11.0168
おばあちゃん	-11.0168
エレベーター	-11.0168
サンドイッチ	-11.0168
房	-11.0168
脚	-11.0168
▁elevator	-11.0168
▁genius	-11.0168
▁political	-11.0168
▁suspect	-11.0168
吐	-11.0168
勇敢	-11.0168
抵	-11.0168
合衆国	-11.0168
▁worn	-11.0168
マジで	-11.0168
たまたま	-11.0168
スピード	-11.0168
聴衆	-11.0169
▁pool	-11.0169
▁glance	-11.017
欲しかった	-11.0171
激しい	-11.0172
職業	-11.0173
▁lip	-11.0173
暑さ	-11.0177
2013	-11.0185
が増え	-11.0192
不可能	-11.0249
所有	-11.026
出発します	-11.0276
屈	-11.0277
層	-11.0277
ゅ	-11.0277
▁yellow	-11.0277
▁profession	-11.0277
▁struck	-11.0277
浜	-11.0277
故郷	-11.0277
遂	-11.0277
▁remove	-11.0277
▁noisy	-11.0277
▁Write	-11.0277
心臓	-11.0278
▁mix	-11.0278
天才	-11.0278
▁jam	-11.0278
間に合った	-11.0279
片付け	-11.0279
手伝ってくれる	-11.028
▁crop	-11.028
協力	-11.0283
プール	-11.0287
▁bone	-11.0288
午前中	-11.0308
化学	-11.0321
▁fill	-11.0359
ように言った	-11.0378
▁apart	-11.0384
闘	-11.0387
豆	-11.0387
グループ	-11.0387
最善を尽く	-11.0387
▁photograph	-11.0387
▁School	-11.0387
▁access	-11.0387
▁captain	-11.0387
▁eleven	-11.0387
▁ourselves	-11.0387
▁politics	-11.0387
いちばん	-11.0387
ジュース	-11.0387
過ごす	-11.0387
▁constant	-11.0387
はどこにありますか	-11.0387
つつある	-11.0387
勘定	-11.0387
▁odd	-11.0388
解雇	-11.0388
勝利	-11.039
シュ	-11.0392
語を勉強	-11.0394
▁きみ	-11.0394
▁Sami	-11.0395
だらけ	-11.0395
▁dare	-11.0402
英語を勉強し	-11.0407
大部分	-11.0408
ごとに	-11.041
我	-11.0422
を求めて	-11.0466
▁concern	-11.0466
労働	-11.0473
写	-11.0497
▁interpret	-11.0498
恐ろしい	-11.0498
諸	-11.0498
麦	-11.0498
到着する	-11.0498
孤	-11.0498
徹	-11.0498
脳	-11.0498
さっき	-11.0498
分かんない	-11.0498
供給	-11.0498
睡眠	-11.0498
効果	-11.0499
gram	-11.0499
計算	-11.0499
行儀	-11.0499
有効	-11.0499
そっくり	-11.05
劇場	-11.05
が大好きなんだ	-11.0501
▁dying	-11.0502
▁あの人たち	-11.0503
女優	-11.0503
▁musician	-11.0503
ここへ来	-11.0505
▁someday	-11.0506
▁政府は	-11.051
▁discussion	-11.051
▁flow	-11.0526
を覚えてい	-11.0531
か知っていますか	-11.0541
▁その問題は	-11.0545
ないでくれ	-11.0587
怪	-11.0607
球	-11.0607
敬	-11.061
おめでとう	-11.061
チョコレート	-11.061
▁dancing	-11.061
▁evidence	-11.061
▁froze	-11.061
▁industry	-11.061
▁modern	-11.061
こんにちは	-11.061
さっぱり	-11.061
焦	-11.061
玄関	-11.061
▁court	-11.0611
思い出せない	-11.0612
言いたいこと	-11.0612
▁actress	-11.0613
▁bigger	-11.0614
手紙を書いた	-11.0614
車に乗	-11.0618
▁fellow	-11.0618
ことが出来る	-11.062
を買いました	-11.0637
発音	-11.0645
考	-11.0704
1000	-11.0708
▁thin	-11.0718
号	-11.0723
令	-11.0724
億	-11.0724
脅	-11.0724
裕福	-11.0724
迫	-11.0724
▁Africa	-11.0724
▁baggage	-11.0724
▁material	-11.0724
▁notebook	-11.0724
▁potato	-11.0724
▁stairs	-11.0724
招待し	-11.0724
相変わらず	-11.0724
鞄	-11.0724
▁fox	-11.0724
珍	-11.0724
▁false	-11.0724
を楽しみにしています	-11.0724
▁neighborhood	-11.0724
夫婦	-11.0724
▁guard	-11.0725
たびに	-11.0727
に満足して	-11.073
ことができなかった	-11.0755
笑顔	-11.0769
Fi	-11.0789
0	-11.082
▁clu	-11.0838
操	-11.0839
ウサギ	-11.0839
肌	-11.0839
Z	-11.0839
▁acquainted	-11.0839
▁fridge	-11.0839
▁influence	-11.0839
▁responsibility	-11.0839
▁twelve	-11.0839
▁violin	-11.0839
タオル	-11.0839
▁shame	-11.0839
▁pride	-11.0839
美しさ	-11.0839
明るい	-11.0839
▁pressure	-11.084
産業	-11.0843
フランス語を話す	-11.0844
何年も	-11.0845
▁create	-11.0845
もはや	-11.0845
車を買う	-11.0846
費用	-11.0846
ネット	-11.0847
ランチ	-11.0848
変わって	-11.0851
彼女に会った	-11.0854
ified	-11.0857
暑く	-11.0862
男の人	-11.0863
協	-11.0949
に近づ	-11.0951
の準備を	-11.0951
兵	-11.0955
Where	-11.0955
慮	-11.0955
アフリカ	-11.0955
きちんと	-11.0955
領	-11.0955
▁Hawaii	-11.0955
▁accomplish	-11.0955
▁ignore	-11.0955
ネズミ	-11.0955
封	-11.0955
添	-11.0955
荒	-11.0955
▁block	-11.0955
▁surprising	-11.0955
いわゆる	-11.0955
雄	-11.0955
▁alarm	-11.0955
聖	-11.0955
▁Earth	-11.0955
▁knee	-11.0955
▁Stay	-11.0955
黄色	-11.0956
誤解	-11.0956
以内	-11.0957
時間通りに	-11.0957
ほかの	-11.0958
完成	-11.0958
▁lent	-11.0959
▁upset	-11.0959
によれば	-11.096
▁cookies	-11.0961
を盗んだ	-11.0971
越し	-11.0975
部屋の中	-11.1018
荷	-11.1039
暖かく	-11.1049
香	-11.106
徒	-11.1065
態	-11.1068
熊	-11.1073
▁publish	-11.1073
巨	-11.1073
舌	-11.1073
▁thunder	-11.1073
あんまり	-11.1073
サイズ	-11.1073
サイト	-11.1073
ショック	-11.1073
仰	-11.1073
▁Recently	-11.1073
▁private	-11.1073
▁throat	-11.1073
ハワイ	-11.1073
純	-11.1073
▁smiling	-11.1073
▁colour	-11.1073
チェス	-11.1073
▁flew	-11.1073
▁international	-11.1073
投票	-11.1073
友情	-11.1075
姉妹	-11.1076
That	-11.1077
出版	-11.108
ことがわかった	-11.1084
っきり	-11.1105
かばん	-11.1118
ればよかったのに	-11.1137
▁alcohol	-11.1144
傘を持って	-11.115
中国語	-11.1159
楽しみにして	-11.116
ニュー	-11.1183
っくり	-11.1187
湯	-11.1192
看護婦	-11.1192
麻	-11.1192
▁criminal	-11.1192
▁kilometers	-11.1192
尾	-11.1192
殴	-11.1192
漏	-11.1192
～	-11.1192
▁Money	-11.1192
叩	-11.1192
湿	-11.1192
平均	-11.1192
気を付け	-11.1192
条件	-11.1192
仲良く	-11.1193
あんた	-11.1193
首相	-11.1194
▁Hold	-11.1195
上昇	-11.1197
ゴミ	-11.1197
来られ	-11.1204
を聞くと	-11.1205
無視し	-11.1209
になろう	-11.1236
企	-11.1311
誇	-11.1312
拝	-11.1312
▁Unfortunately	-11.1312
▁discovered	-11.1312
▁drug	-11.1312
▁separate	-11.1312
▁supplie	-11.1312
▁bomb	-11.1312
▁measure	-11.1312
▁nearby	-11.1312
▁labor	-11.1312
検査	-11.1312
▁import	-11.1313
▁chess	-11.1313
自分自身	-11.1314
▁hunt	-11.1317
ずにはいられな	-11.1319
替	-11.14
財	-11.1433
含	-11.1434
施	-11.1434
没	-11.1434
▁investigat	-11.1434
▁Somebody	-11.1434
▁command	-11.1434
▁conference	-11.1434
▁generation	-11.1434
▁vain	-11.1434
▁vase	-11.1434
▁weird	-11.1434
夜更かし	-11.1434
▁Next	-11.1434
申し上げ	-11.1434
鶏	-11.1434
大きさ	-11.1435
▁tourist	-11.1435
▁double	-11.1435
文章	-11.1435
被害	-11.1435
指輪	-11.1435
意志	-11.1435
煙草	-11.1436
農場	-11.1437
▁dating	-11.1439
▁raw	-11.1439
を知っていますか	-11.144
▁ジャックは	-11.1443
どうにか	-11.1445
近づいて	-11.1448
正午	-11.1456
law	-11.1458
も無駄だ	-11.1473
を助ける	-11.1539
▁cast	-11.155
考慮	-11.1555
労	-11.1557
孫	-11.1558
省	-11.1558
アレルギー	-11.1558
トランプ	-11.1558
奇妙な	-11.1558
▁Three	-11.1558
▁argue	-11.1558
▁festival	-11.1558
▁impression	-11.1558
手伝う	-11.1558
献	-11.1558
▁greet	-11.1558
▁scream	-11.1558
プロジェクト	-11.1558
の首都	-11.1558
宗教	-11.1558
▁daily	-11.1558
▁Jones	-11.1558
▁evil	-11.1558
▁comment	-11.1558
▁Star	-11.1559
掛	-11.1559
▁rough	-11.1559
▁guide	-11.1559
増加	-11.1559
▁severe	-11.1559
▁Help	-11.156
便利	-11.156
▁idle	-11.1566
は好きですか	-11.1571
上がる	-11.1604
仕上げ	-11.1652
の使い方	-11.1652
込んでい	-11.1653
▁dollar	-11.1669
ittle	-11.1677
につれて	-11.1682
飾	-11.1683
▁abandon	-11.1683
ベンチに	-11.1683
▁basketball	-11.1683
▁brief	-11.1683
▁consult	-11.1683
▁depressed	-11.1683
▁everywhere	-11.1683
▁individual	-11.1683
▁patience	-11.1683
▁poison	-11.1683
▁superior	-11.1683
裂	-11.1683
▁process	-11.1683
ズボン	-11.1683
涼	-11.1683
▁branch	-11.1683
▁faint	-11.1683
って言ってたよ	-11.1683
▁presence	-11.1683
大声で	-11.1683
▁Air	-11.1683
気づいて	-11.1683
警告	-11.1683
目を覚ま	-11.1683
勤務	-11.1684
▁その老人は	-11.1684
▁operation	-11.1685
▁chairman	-11.1686
部屋を掃除	-11.1686
▁winning	-11.1686
べきだったのに	-11.169
J	-11.1704
外に出	-11.1727
アリス	-11.1739
▁gentle	-11.1809
▁distinguish	-11.1809
▁exciting	-11.1809
▁jealous	-11.1809
▁textbook	-11.1809
▁valuable	-11.1809
スケート	-11.1809
剣	-11.1809
▁divide	-11.1809
漫画	-11.1809
▁reserve	-11.181
必要はなかった	-11.181
とたん	-11.1811
▁score	-11.1817
▁identi	-11.1818
▁prevent	-11.1906
即	-11.1938
放課後	-11.1938
運転免許	-11.1938
▁トムもメアリーも	-11.1938
▁drama	-11.1938
▁eager	-11.1938
▁reputation	-11.1938
▁smooth	-11.1938
▁suicide	-11.1938
▁victory	-11.1938
岩	-11.1938
試験に合格する	-11.1938
俳優	-11.1938
▁profit	-11.1938
▁medical	-11.1938
最大の	-11.1938
講義	-11.1938
▁relationship	-11.1938
輸入	-11.1939
神経	-11.194
親友	-11.194
おきに	-11.1941
やがて	-11.1945
▁weigh	-11.1995
小さく	-11.1996
森の中	-11.2035
はいかが	-11.2059
瓶	-11.2066
尊	-11.2067
サービス	-11.2067
エネルギー	-11.2067
柔	-11.2067
▁interrupt	-11.2067
卓	-11.2067
地下鉄	-11.2067
▁Chicago	-11.2067
▁applied	-11.2067
▁battle	-11.2067
▁destroyed	-11.2067
▁essential	-11.2067
▁invitation	-11.2067
▁length	-11.2067
▁located	-11.2067
▁rescue	-11.2067
▁upstairs	-11.2067
シカゴ	-11.2067
汗	-11.2067
沿	-11.2067
▁scolded	-11.2067
▁drove	-11.2067
▁postpone	-11.2068
建設	-11.2068
チュー	-11.2068
裁判	-11.2068
政策	-11.2068
注意深く	-11.2069
▁Alice	-11.2069
選ばれ	-11.2069
▁pants	-11.207
異なる	-11.207
輝	-11.2081
午前	-11.2139
corn	-11.2154
更	-11.2198
贈	-11.2199
ガソリン	-11.2199
▁defeat	-11.2199
刑務所	-11.2199
谷	-11.2199
▁Yanni	-11.2199
▁idiot	-11.2199
▁midnight	-11.2199
なければいけません	-11.2199
飢	-11.2199
髪の毛	-11.2199
やっぱり	-11.2199
忍耐	-11.2199
書き留め	-11.2199
▁mild	-11.2199
寿司	-11.2199
▁expert	-11.2199
▁strict	-11.2199
治療	-11.2199
変わる	-11.22
報告書	-11.22
花瓶	-11.2201
▁path	-11.2201
▁shine	-11.2205
を恐れて	-11.2237
Tom	-11.2247
いらっしゃ	-11.2298
▁invite	-11.2305
泥	-11.2332
清	-11.2332
ジョーンズ	-11.2332
奈	-11.2332
鬼	-11.2332
▁observe	-11.2332
徳	-11.2332
▁Suddenly	-11.2332
▁motorcycle	-11.2332
誇りに思	-11.2332
▁faith	-11.2332
蛇	-11.2332
▁elder	-11.2332
▁spoil	-11.2332
▁sushi	-11.2332
データ	-11.2332
▁confuse	-11.2332
▁begun	-11.2332
▁insult	-11.2332
浮かんだ	-11.2333
廃止	-11.2333
時間がかかる	-11.2334
決まって	-11.2336
輸	-11.2466
▁qua	-11.2467
▁shoot	-11.2467
導	-11.2467
炎	-11.2467
譲	-11.2467
▁circumstances	-11.2467
▁fifteen	-11.2467
▁literature	-11.2467
▁mobile	-11.2467
渇	-11.2467
▁element	-11.2467
うるさい	-11.2467
▁nerve	-11.2468
に応じ	-11.2468
競技	-11.2468
▁data	-11.2468
ショー	-11.2468
離陸	-11.2468
問題を解く	-11.2468
誠実	-11.2468
損害	-11.2469
▁sex	-11.2469
▁yard	-11.247
▁Tea	-11.2487
尽くし	-11.2487
ひかれ	-11.2494
あちこち	-11.2604
しょっちゅう	-11.2604
削	-11.2604
丈	-11.2604
電話が鳴った	-11.2604
▁Tuesday	-11.2604
▁application	-11.2604
大っ嫌い	-11.2604
▁broad	-11.2604
どんどん	-11.2604
従業員	-11.2604
獄	-11.2604
索	-11.2604
▁Italian	-11.2605
つまらない	-11.2605
▁silly	-11.2605
複雑	-11.2605
いたずら	-11.2605
わざと	-11.2605
▁losing	-11.2605
のそばに	-11.2608
bility	-11.2646
▁suppose	-11.2716
かかります	-11.2718
ジャック	-11.2734
アジア	-11.2743
獲	-11.2743
藤	-11.2743
核	-11.2743
繁	-11.2743
ぷ	-11.2743
▁independent	-11.2743
▁loose	-11.2743
▁mirror	-11.2743
▁thirteen	-11.2743
面白かった	-11.2743
▁Spring	-11.2743
▁overseas	-11.2743
系	-11.2743
略	-11.2743
アイスクリーム	-11.2743
▁mystery	-11.2744
報告	-11.2744
に直面し	-11.2744
印象	-11.2744
気づか	-11.2744
▁performance	-11.2744
警察官	-11.2744
医師	-11.2744
舞台	-11.2745
疑問	-11.2745
▁crack	-11.2745
▁loan	-11.2745
▁south	-11.2757
が嫌いだ	-11.2774
与	-11.2783
▁dam	-11.2871
▁sweat	-11.2871
▁recent	-11.2875
硬	-11.2884
嘆	-11.2884
裸	-11.2884
▁February	-11.2884
▁Generally	-11.2884
▁approve	-11.2884
▁benefit	-11.2884
▁boast	-11.2884
▁citizen	-11.2884
▁communicate	-11.2884
▁pianist	-11.2884
▁simply	-11.2884
▁unexpected	-11.2884
両方とも	-11.2884
幅	-11.2884
恥ずかしい	-11.2884
掘	-11.2884
▁strike	-11.2884
背が高く	-11.2884
嘘をつく	-11.2884
▁humor	-11.2884
▁mouse	-11.2884
▁Few	-11.2884
▁July	-11.2884
▁pray	-11.2884
いけなかった	-11.2885
▁contest	-11.2885
誰にでも	-11.2885
指摘	-11.2885
営業	-11.2885
と約束した	-11.2891
▁tire	-11.2999
おもしろ	-11.3006
句	-11.3026
郎	-11.3027
準	-11.3027
裁	-11.3027
バナナ	-11.3027
懐	-11.3027
縮	-11.3027
▁Brazil	-11.3027
▁frequent	-11.3027
いろんな	-11.3027
バイオリン	-11.3027
▁arriving	-11.3027
▁confidence	-11.3027
▁laundry	-11.3027
▁monkey	-11.3027
ホテルに泊ま	-11.3027
▁adapt	-11.3027
▁adopt	-11.3027
▁truly	-11.3027
▁Yumi	-11.3027
▁text	-11.3027
▁sunny	-11.3027
▁gym	-11.3027
▁replace	-11.3028
評判	-11.3028
知り合った	-11.3028
▁彼の話は	-11.3035
には関係ない	-11.3045
の仕方	-11.3066
続いて	-11.3077
▁disappoint	-11.314
▁necessar	-11.3161
将	-11.3171
警	-11.3171
▁relation	-11.3171
陽	-11.3171
itude	-11.3172
▁financial	-11.3172
▁minister	-11.3172
蜂	-11.3172
衛	-11.3172
随	-11.3172
餌	-11.3172
いずれ	-11.3172
組織	-11.3172
▁hiding	-11.3172
▁instant	-11.3172
どなた	-11.3172
▁attach	-11.3174
お風呂に入	-11.3174
かまいません	-11.3175
が大好きなの	-11.3182
▁comb	-11.3184
大切だ	-11.3185
を切って	-11.327
秘	-11.3317
輪	-11.3318
競	-11.3319
梅	-11.3319
▁establish	-11.3319
紛	-11.3319
▁decline	-11.3319
ブラジル	-11.3319
傾向がある	-11.3319
審	-11.3319
▁January	-11.3319
▁chief	-11.3319
▁dawn	-11.3319
▁diligent	-11.3319
▁journey	-11.3319
▁previous	-11.3319
UFO	-11.3319
▁Listen	-11.3319
天気予報	-11.3319
ソフト	-11.3319
暗闇	-11.3319
いっそう	-11.3319
▁departure	-11.3319
の高さ	-11.332
を選ぶ	-11.332
ァ	-11.3321
で働いています	-11.3344
のだと思ってい	-11.3345
飛行機に乗	-11.3436
奥	-11.3454
誤	-11.3455
hood	-11.3466
録	-11.3467
歴	-11.3468
縁	-11.3468
アルコール	-11.3468
液	-11.3468
オフィス	-11.3468
役立つ	-11.3468
▁uniform	-11.3468
▁急がないと	-11.3468
帽子をかぶ	-11.3468
▁Olympic	-11.3468
▁banana	-11.3468
▁gradually	-11.3468
▁innocence	-11.3468
▁oppose	-11.3468
▁relative	-11.3468
▁tradition	-11.3468
侵	-11.3468
刈	-11.3468
▁changing	-11.3468
▁shake	-11.3468
▁bookstore	-11.3468
▁reduce	-11.3468
沸	-11.3468
野球の試合	-11.3468
▁spider	-11.3468
一言も	-11.3468
漢字	-11.3468
▁committed	-11.3468
あいにく	-11.3468
約束を守る	-11.3469
見つかった	-11.3469
を加え	-11.3478
スペイン	-11.3525
お互い	-11.3541
銀	-11.3615
タトエバ	-11.362
といえば	-11.362
秀	-11.362
頬	-11.362
▁associate	-11.362
▁frightened	-11.362
▁heavily	-11.362
▁nuclear	-11.362
▁permission	-11.362
▁sensitive	-11.362
▁appeal	-11.362
▁fluently	-11.362
ATM	-11.362
▁resemble	-11.362
刷	-11.362
訓練	-11.362
▁extent	-11.362
検討	-11.362
お姉さん	-11.362
けんか	-11.362
▁mask	-11.362
▁magic	-11.362
に向けて	-11.3623
建	-11.3662
suitable	-11.3699
お会いした	-11.3753
ぽ	-11.3771
できれば	-11.3773
帳	-11.3774
軒	-11.3774
▁allergic	-11.3774
▁female	-11.3774
▁grateful	-11.3774
▁ordinary	-11.3774
▁prince	-11.3774
▁release	-11.3774
▁section	-11.3774
▁surface	-11.3774
とは思わない	-11.3774
シャワーを浴び	-11.3774
メキシコ	-11.3774
教科書	-11.3774
炭	-11.3774
▁basic	-11.3774
▁survive	-11.3774
範	-11.3774
▁purse	-11.3774
建築	-11.3774
▁carpet	-11.3774
▁South	-11.3774
お医者さん	-11.3774
▁stress	-11.3775
大事な	-11.3776
を考慮に入れ	-11.3777
▁claim	-11.3832
に従う	-11.3858
修理してもら	-11.3861
house	-11.3893
慢	-11.3929
療	-11.3929
募	-11.393
ヌ	-11.393
ograph	-11.393
▁British	-11.393
▁arrival	-11.393
▁detective	-11.393
▁devoted	-11.393
▁related	-11.393
浪	-11.393
▁emotion	-11.393
剤	-11.393
尻	-11.393
新鮮な	-11.393
溺	-11.393
蹴	-11.393
▁freedom	-11.393
糸	-11.393
嘘をついた	-11.393
▁split	-11.393
衝突	-11.393
▁rising	-11.393
敗	-11.4088
勘	-11.4088
談	-11.4088
牧	-11.4089
埋	-11.4089
恩	-11.4089
旗	-11.4089
縄	-11.4089
拍	-11.4089
跳	-11.4089
却	-11.4089
豚	-11.425
項	-11.425
V	-11.439
致	-11.4408
練	-11.4412
補	-11.4414
敷	-11.4414
塔	-11.4414
灰	-11.4414
衰	-11.4414
臆	-11.4414
伏	-11.4414
都	-11.4496
芸	-11.458
偽	-11.4581
執	-11.4581
樹	-11.4581
穏	-11.4581
枝	-11.4581
缶	-11.4581
版	-11.4739
岸	-11.4749
史	-11.475
河	-11.475
矢	-11.475
伴	-11.475
囚	-11.475
敏	-11.475
胆	-11.475
越	-11.48
忠	-11.4922
傾	-11.4922
泉	-11.4922
塀	-11.4922
貼	-11.4922
益	-11.5097
則	-11.5098
膝	-11.5098
慌	-11.5098
ィ	-11.5246
儀	-11.5274
因	-11.5276
築	-11.5276
忍	-11.5276
虚	-11.5276
偏	-11.5276
〜	-11.5276
謎	-11.5276
縫	-11.5276
宮	-11.5458
桃	-11.5458
稿	-11.5458
隔	-11.5458
ゾ	-11.5458
委	-11.5458
松	-11.5458
蝶	-11.5458
枯	-11.5458
志	-11.5642
廃	-11.5643
/	-11.5643
豪	-11.5643
露	-11.5643
棄	-11.5643
鮮	-11.5643
U	-11.5667
互	-11.5832
仏	-11.5832
融	-11.5832
維	-11.5832
叶	-11.5832
痴	-11.5832
巣	-11.5832
称	-11.5832
ぱ	-11.6013
扉	-11.6024
綿	-11.6024
妬	-11.6024
是	-11.6024
京	-11.6109
愚	-11.6202
条	-11.622
稲	-11.622
偉	-11.622
筒	-11.6221
隷	-11.6221
償	-11.6221
拭	-11.6221
顧	-11.6221
祖	-11.6363
婦	-11.6413
畑	-11.6421
唇	-11.6421
浅	-11.6421
蔑	-11.6624
猛	-11.6625
獣	-11.6625
咳	-11.6625
猿	-11.6625
粗	-11.6625
哀	-11.6625
如	-11.6625
潜	-11.6625
響	-11.6833
寧	-11.6833
巡	-11.6833
柱	-11.6833
束	-11.7045
慎	-11.7046
県	-11.7046
副	-11.7046
摂	-11.7046
惨	-11.7046
貫	-11.7046
旨	-11.7046
煮	-11.7046
磁	-11.7046
邪	-11.7262
懸	-11.7262
棒	-11.7263
脈	-11.7263
憂	-11.7263
甲	-11.7263
昆	-11.7263
訪	-11.7412
紅	-11.7485
伊	-11.7485
嫁	-11.7485
烈	-11.7485
秒	-11.7485
寸	-11.7485
癌	-11.7485
縛	-11.7485
蚊	-11.7485
刊	-11.7485
係	-11.7712
”	-11.7713
那	-11.7713
湾	-11.7713
肺	-11.7713
蜜	-11.7713
沖	-11.7713
é	-11.7713
唱	-11.7713
鯨	-11.7713
排	-11.7713
頓	-11.7713
箸	-11.7713
陣	-11.7713
里	-11.7713
述	-11.7944
躍	-11.7945
債	-11.7945
鎖	-11.7945
洞	-11.7945
糧	-11.7945
堅	-11.7945
墓	-11.7945
奨	-11.7945
凡	-11.7945
+	-11.7945
衝	-11.8183
彫	-11.8183
貢	-11.8183
爪	-11.8183
刀	-11.8183
狩	-11.8183
縦	-11.8183
錠	-11.8183
袖	-11.8427
潮	-11.8427
肝	-11.8427
厄	-11.8427
嗅	-11.8427
欺	-11.8427
津	-11.8427
釣	-11.8656
営	-11.8676
虎	-11.8677
卑	-11.8677
宛	-11.8677
網	-11.8677
枕	-11.8677
蔵	-11.8677
拠	-11.8933
泡	-11.8934
童	-11.8934
岡	-11.8934
餓	-11.8934
揚	-11.8934
葬	-11.8934
賄	-11.8934
幕	-11.8934
凄	-11.8934
浸	-11.8934
坂	-11.8934
克	-11.9197
籍	-11.9197
緩	-11.9197
臭	-11.9446
司	-11.9464
悔	-11.9465
奏	-11.9466
寿	-11.9467
魂	-11.9467
剥	-11.9467
塞	-11.9467
尿	-11.9467
諾	-11.9467
砲	-11.9467
睡	-11.9744
摘	-11.9744
殿	-11.9745
吉	-11.9745
猟	-11.9745
苺	-11.9745
墜	-11.9745
菜	-12.003
舎	-12.003
簡	-12.003
崎	-12.003
婆	-12.003
鍋	-12.003
紫	-12.003
促	-12.003
擦	-12.003
姓	-12.003
閣	-12.003
幹	-12.003
章	-12.0323
汁	-12.0325
剃	-12.0325
竜	-12.0325
鬱	-12.0325
盤	-12.0325
佐	-12.0325
垣	-12.0325
帝	-12.0325
遇	-12.0325
狼	-12.0325
鹿	-12.0627
巧	-12.0628
肥	-12.0628
沙	-12.0628
虹	-12.0628
“	-12.0628
漁	-12.0628
誠	-12.0938
授	-12.0939
票	-12.094
芽	-12.094
鈍	-12.094
姫	-12.094
紐	-12.094
狐	-12.094
炊	-12.094
詐	-12.094
謀	-12.094
飴	-12.094
鎮	-12.094
斜	-12.094
菌	-12.094
患	-12.1237
ヶ	-12.1255
闇	-12.1262
序	-12.1263
壇	-12.1263
肢	-12.1263
兎	-12.1263
掴	-12.1263
憲	-12.1263
監	-12.1263
臨	-12.1263
懲	-12.1263
挟	-12.1263
皇	-12.1263
域	-12.1594
査	-12.1595
欧	-12.1596
戒	-12.1596
盲	-12.1596
賊	-12.1596
季	-12.1941
菓	-12.1941
又	-12.1941
俗	-12.1941
粋	-12.1941
崇	-12.1941
馴	-12.1941
茂	-12.1941
酬	-12.1941
杖	-12.1941
栓	-12.1941
幻	-12.2298
廊	-12.2298
兆	-12.2298
傲	-12.2298
窮	-12.2298
疎	-12.2298
訊	-12.2298
垂	-12.2298
掻	-12.2298
釘	-12.2298
併	-12.2298
炉	-12.2298
黄	-12.2667
符	-12.2667
織	-12.2668
複	-12.2668
誌	-12.2668
彩	-12.2668
燥	-12.2668
―	-12.2668
鐘	-12.2668
鑑	-12.2668
髭	-12.2668
兼	-12.2668
盆	-12.2668
帆	-12.2668
剰	-12.2668
紀	-12.3052
醜	-12.3053
圏	-12.3053
邦	-12.3053
鶴	-12.3053
傑	-12.3053
粒	-12.3053
°	-12.3053
礎	-12.3053
竹	-12.3053
淡	-12.3053
轢	-12.3053
鼠	-12.3053
駄	-12.3446
糖	-12.3453
膚	-12.3453
崖	-12.3453
訓	-12.3453
挫	-12.3453
架	-12.3453
絹	-12.3453
軌	-12.3453
霜	-12.3453
=	-12.3453
廷	-12.3453
翼	-12.3453
鍛	-12.3453
駆	-12.3836
販	-12.3869
庁	-12.387
臓	-12.4302
卒	-12.4303
栽	-12.4304
借	-12.4635
興	-12.4758
漢	-12.4758
携	-12.4759
培	-12.4759
律	-12.626
掃	-12.6261
環	-12.6261
候	-12.7402
奮	-12.7405
功	-12.8029
郷	-12.803
希	-12.8696
趣	-12.941
均	-12.941
偶	-12.9411
莫	-12.9411
忘	-12.9765
帽	-13.0167
漫	-13.018
玄	-13.018
府	-13.018
勇	-13.0978
鉛	-13.1014
辱	-13.1014
責	-13.1613
耐	-13.1825
俳	-13.1922
唯	-13.1923
勉	-13.2922
宗	-13.2923
侮	-13.2923
敢	-13.4034
勧	-13.6378
絡	-13.6712
翻	-13.6712
宇	-13.8379
裕	-14.0379
飽	-14.2641
督	-14.2879
宙	-14.2879
午	-14.62
憶	-14.6212
呂	-15.1212
陳	-16.0999
窟	-16.1
斐	-16.1001
揃	-16.1002
憧	-16.1003
鹸	-16.1004
惹	-16.1005
覗	-16.1006
罠	-16.1007
繊	-16.1008
梯	-16.1009
噴	-16.101
賂	-16.1011
綴	-16.1012
穀	-16.1013
慰	-16.1014
訂	-16.1015
薔	-16.1016
薇	-16.1017
漂	-16.1018
曖	-16.1019
偵	-16.102
贅	-16.1021
虐	-16.1022
貌	-16.1023
膨	-16.1024
祉	-16.1025
汰	-16.1026
簿	-16.1027
哺	-16.1028
乞	-16.1029
撲	-16.103
慈	-16.1031
雰	-16.1032
蜘	-16.1033
蛛	-16.1034
愉	-16.1035
詫	-16.1036
惜	-16.1037
貰	-16.1038
苗	-16.1039
珠	-16.104
漠	-16.1041
昧	-16.1042
狙	-16.1043
寛	-16.1044
笛	-16.1045
析	-16.1046
寮	-16.1047
嫉	-16.1048
戚	-16.1049
銘	-16.105
絞	-16.1051
搭	-16.1052
羨	-16.1053
隅	-16.1054
郊	-16.1055
央	-16.1056
頻	-16.1057
捧	-16.1058
函	-16.1059
掲	-16.106
粧	-16.1061
痩	-16.1062
旦	-16.1063
妨	-16.1064
斎	-16.1065
蓄	-16.1066
賭	-16.1067
薦	-16.1068
臣	-16.1069
拡	-16.107
騰	-16.1071
檎	-16.1072
徐	-16.1073
堪	-16.1074
褒	-16.1075
穫	-16.1076
惰	-16.1077
脇	-16.1078
揮	-16.1079
惚	-16.108
励	-16.1081
鈴	-16.1082
溶	-16.1083
妥	-16.1084
哲	-16.1085
暢	-16.1086
誓	-16.1087
曇	-16.1088
儲	-16.1089
鋭	-16.109
騙	-16.1091
陥	-16.1092
酷	-16.1093
娠	-16.1094
僚	-16.1095
洪	-16.1096
挑	-16.1097
徴	-16.1098
宣	-16.1099
往	-16.11
涯	-16.1101
需	-16.1102
輩	-16.1103
翌	-16.1104
蒸	-16.1105
較	-16.1106
威	-16.1107
妊	-16.1108
韓	-16.1109
遭	-16.111
叱	-16.1111
貿	-16.1112
吠	-16.1113
諦	-16.1114
署	-16.1115
控	-16.1116
挨	-16.1117
拶	-16.1118
拾	-16.1119
悟	-16.112
渉	-16.1121
汽	-16.1122
繰	-16.1123
批	-16.1124
距	-16.1125
誉	-16.1126
幽	-16.1127
逮	-16.1128
択	-16.1129
紳	-16.113
嘩	-16.1131
双	-16.1132
購	-16.1133
璧	-16.1134
犠	-16.1135
牲	-16.1136
揺	-16.1137
契	-16.1138
眺	-16.1139
抑	-16.114
預	-16.1141
濡	-16.1142
推	-16.1143
綺	-16.1144
概	-16.1145
拒	-16.1146
噛	-16.1147
伺	-16.1148
継	-16.1149
締	-16.115
標	-16.1151
稼	-16.1152
駐	-16.1153
績	-16.1154
魅	-16.1155
看	-16.1156
緊	-16.1157
貯	-16.1158
乏	-16.1159
椅	-16.116
阪	-16.1161
紹	-16.1162
攻	-16.1163
濯	-16.1164
染	-16.1165
避	-16.1166
救	-16.1167
捜	-16.1168
況	-16.1169
械	-16.117
嬉	-16.1171
詳	-16.1172
般	-16.1173
捨	-16.1174
喫	-16.1175
郵	-16.1176
齢	-16.1177
頑	-16.1178
尋	-16.1179
%	-16.118
援	-16.1181
冗	-16.1182
叔	-16.1183
賢	-16.1184
究	-16.1185
研	-16.1186
規	-16.1187
招	-16.1188
坊	-16.1189
迎	-16.119
保	-16.1191
誕	-16.1192
賛	-16.1193
追	-16.1194
識	-16.1195
到	-16.1196
普	-16.1197
努	-16.1198
慣	-16.1199
求	-16.12
疲	-16.1201
忙	-16.1202
確	-16.1203
験	-16.1204
曜	-16.1205
始	-16.1206
ャ	-16.1207
違	-16.1208
昨	-16.1209
必	-16.121
q	-16.1211
憩	-16.1212
康	-16.1212
思	-16.1212
